#version: 0.2
t h
th e</w>
t i
a n
i n
r e
e n
o n
e r
o n</w>
o f</w>
e d</w>
a r
an d</w>
o r
a ti
i t
t o</w>
e s</w>
o u
s t
a l</w>
i n</w>
r o
in g</w>
e r</w>
a l
a t
e c
s i
o m
i c
a c
o r</w>
m en
i s
a t</w>
e l
ati on</w>
a s</w>
p ro
p o
u n
s u
i l
c on
i s</w>
a n</w>
e s
r i
on s</w>
a s
c om
d e
t s</w>
p l
f or</w>
2 0
v e</w>
r a
u r
@ -
@- @</w>
men t</w>
q u
ti on</w>
e n</w>
o l
b l
re s
th at</w>
c e</w>
v i
po s
d i
o p
c h
a g
a d
c i
l y</w>
o t
e m
w h
l e
e x
t er
h a
f or
ou n
u s
20 0
p ar
l i
it y</w>
w it
p or
ti n
u l
ati ons</w>
v er
wit h</w>
on al</w>
i t</w>
& a
b y</w>
s h
&a pos
a m
b e
l o
i m
n o
th e
a p
g h
at e</w>
f f
b e</w>
&apos ;
n e
1 9
com m
m e
m a
l d</w>
p er
t r
c l
en t</w>
ar e</w>
d u
s e
t ed</w>
w as</w>
t a
t e
w or
c oun
si on</w>
qu ot
quot ;</w>
& quot;</w>
f i
c o
b u
p e
er e</w>
tin g</w>
g o
s ec
ati onal</w>
v el
al l</w>
er s</w>
st r
it s</w>
a r</w>
th er</w>
d ing</w>
ou ld</w>
&apos; s</w>
re n
a b
m o
g en
ar y</w>
bl e</w>
g i
n ational</w>
s p
ti es</w>
d s</w>
in ter
m an
t h</w>
f ro
国 家</w>
fro m</w>
s t</w>
i z
p re
i c</w>
m in
委 员
委员 会</w>
m e</w>
th is</w>
a i
at ed</w>
20 1
an ce</w>
de vel
it ed</w>
w e
d is
d e</w>
u m
d er</w>
h i
no t</w>
re d</w>
s o</w>
devel op
19 9
c h</w>
t y</w>
问 题</w>
ha ve</w>
会 议</w>
por t</w>
es s</w>
ec i
t ri
b er</w>
ti ons</w>
g r
f e
t er</w>
ou r
s e</w>
d ed</w>
du c
at es</w>
t o
men ts</w>
联 合
un ited</w>
ti c
i r</w>
for m
h as</w>
a y</w>
c e
p res
v en
ic h</w>
g e
一 个</w>
ou t</w>
v e
p u
an t</w>
ri gh
the ir</w>
cl u
s er
o u</w>
t ur
o c
er al</w>
il l</w>
comm it
wh ich</w>
g ra
a f
s o
on e</w>
y ou</w>
pl e
ou r</w>
t u
k e</w>
h e</w>
l a
inter national</w>
我 们</w>
v er</w>
ff ic
h e
p r
f in
联合 国</w>
pro vi
n ations</w>
报 告</w>
组 织</w>
k ing</w>
w ill</w>
a u
a ble</w>
发 展</w>
g h</w>
ver n
t ra
o ther</w>
go vern
al ly</w>
men t
ti ve</w>
al so</w>
政 府</w>
国 际</w>
t en
提 供</w>
ha d</w>
g u
g e</w>
gen eral</w>
develop ment</w>
w ere</w>
工 作</w>
commit te
be en</w>
re c
committe e</w>
0 0</w>
t ec
c es</w>
es s
y e
ar i
as s
b o
su p
re s</w>
d er
en ce</w>
g an
c re
in clu
r e</w>
s y
h o
m or
l ic
st e
a in
op er
v ic
c ri
方 面</w>
su b
关 于</w>
h is</w>
ou s</w>
righ ts</w>
pl e</w>
以 及</w>
or gan
进 行</w>
w e</w>
st ates</w>
g n
ci al</w>
k e
w i
l e</w>
ar d</w>
s ti
这 些</w>
ag e</w>
wor k</w>
o d</w>
pro gra
em ber</w>
m ar
ac e</w>
包 括</w>
a y
on g</w>
the y</w>
d o
re qu
c or
1 0</w>
u s</w>
通 过</w>
in g
m on
res p
ati ve</w>
progra m
ec t</w>
ol u
社 会</w>
h um
p ri
re g
u c
pu bl
bu t</w>
sp eci
organ iz
情 况</w>
w ould</w>
i d
sh ould</w>
gh t</w>
e st
机 构</w>
es e</w>
hum an</w>
其 他</w>
re gi
f u
on om
en t
方 案</w>
e v
as e</w>
i r
us e</w>
is h
w om
us t</w>
om e</w>
en ti
in form
mor e</w>
e ment</w>
i ties</w>
i es</w>
es t</w>
o ffic
他 们</w>
re l
tri es</w>
ou gh</w>
1 2</w>
coun tries</w>
有 关</w>
en d
al s</w>
ne w</w>
im ple
特 别</w>
vi e
c an</w>
v es</w>
f ac
a d</w>
re t
w el
is sion</w>
执 行</w>
c er
ec onom
wom en</w>
d ec
al l
re port</w>
o b
su ch</w>
ac ti
f un
or y</w>
m il
行 动</w>
p h
as t</w>
ic al</w>
a bl
si ons</w>
ati n
sec ur
pe o
活 动</w>
没 有</w>
me e
con si
k s</w>
or s</w>
v ed</w>
tr an
atin g</w>
un der</w>
决 议</w>
所 有</w>
st an
人 员</w>
r u
th ere</w>
lo w
i a</w>
f o
publ ic</w>
il ity</w>
per s
t w
e f
可 以</w>
sec ret
安 全</w>
be t
ch il
res olu
gr ou
经 济</w>
ci l</w>
secur ity</w>
por t
po lic
秘 书
st ate</w>
coun cil</w>
su l
妇 女</w>
in e</w>
c ess</w>
govern ment</w>
建 议</w>
le g
fi r
tur e</w>
公 约</w>
w n</w>
a re
ad e</w>
inform ation</w>
con tin
1 1</w>
min i
s el
d el
ma y</w>
ser vic
an y</w>
r ic
as si
th o
项 目</w>
sti tu
m s</w>
t ro
u m</w>
人 权</w>
需 要</w>
可 能</w>
a v
ti me</w>
i g
wi th
u p</w>
sup port</w>
peo ple</w>
ap pro
ar s</w>
合 作</w>
in to</w>
f ic
t e</w>
th r
d ic
j u
am e</w>
st s</w>
comm un
e g
sh i
f t</w>
is su
ven tion</w>
inclu ding</w>
h n
per i
as ed</w>
ar ti
大 会</w>
c en
fe ren
com p
规 定</w>
h el
un i
事 会</w>
d ra
contin u
工 作
p s</w>
d ur
t re
ff ec
d eci
th ese</w>
n o</w>
i f</w>
根 据</w>
c ol
tr y</w>
in v
a si
tic al</w>
缔 约
ste m</w>
tec hn
理 事会</w>
c u
ai d</w>
resp on
c ap
la w</w>
区 域</w>
econom ic</w>
program me</w>
v ing</w>
resolu tion</w>
sy stem</w>
en c
ment ation</w>
m y</w>
s ome</w>
提 出</w>
m ade</w>
ver y</w>
com men
f ol
ch an
m i
c ur
oun d</w>
a su
s es
ac h</w>
arti cl
儿 童</w>
h an
wh o</w>
1 5</w>
权 利</w>
d ay</w>
2 0</w>
系 统</w>
bl y</w>
est abl
决 定</w>
m at
re e</w>
支 持</w>
e ar
n ing</w>
str uc
技 术</w>
i al</w>
vie w</w>
p er</w>
ol o
3 0</w>
tw o</w>
措 施</w>
es ti
j o
d re
we en</w>
en g
ti onal</w>
bet ween</w>
必 须</w>
wor ld</w>
wh en</w>
tran s
fir st</w>
oper ation</w>
ac t</w>
代 表</w>
h er</w>
thr ough</w>
an s</w>
con cer
b ec
s ed</w>
j ec
wel l</w>
ra p
m es</w>
ai r
re pres
ass em
imple mentation</w>
in cre
lo c
影 响</w>
is h</w>
el y</w>
in te
par t
b r
fin an
feren ce</w>
ab out</w>
计 划</w>
n ot
assem bly</w>
管 理</w>
e l</w>
ta in
tho se</w>
so cial</w>
me asu
e qu
man ag
n um
认 为</w>
r on
pl o
res s</w>
re por
一 些</w>
il e</w>
使 用</w>
si d
重 要</w>
si gn
on ly</w>
政 策</w>
th an</w>
grou p</w>
no w</w>
speci al</w>
- -</w>
un der
ma in
mo st</w>
b i
ch in
ment al</w>
法 律</w>
re commen
pro duc
g re
s it
acti vi
ci p
d o</w>
for e</w>
su r
要 求</w>
ay s</w>
il l
o ver</w>
ses sion</w>
so ci
ren t</w>
m em
activi ties</w>
ag ain
articl e</w>
f ul
again st</w>
ul ar</w>
sh e</w>
requ i
t or</w>
su re</w>
ex p
st at
ve l</w>
coun try</w>
研 究</w>
au th
e ffec
in di
al ity</w>
g y</w>
im port
继 续</w>
目 标</w>
pro tec
c our
服 务</w>
res our
y our</w>
comm ission</w>
主 要</w>
par ti
us ed</w>
secret ary</w>
保 护</w>
ac tion</w>
ap pl
部 分</w>
ad op
v is
man y</w>
at er</w>
秘书 长</w>
con vention</w>
资 源</w>
establ ish
1 4</w>
促 进</w>
和 平</w>
mee ting</w>
加 强</w>
f ur
or d
the m</w>
ge t</w>
s ch
ad d
a il
200 8</w>
&apos ;</w>
c ould</w>
st u
st ance</w>
ac k</w>
采 取</w>
dre n</w>
chil dren</w>
ing s</w>
能 力</w>
e m</w>
l ar
w ay</w>
dur ing</w>
努 力</w>
ye ar</w>
200 5</w>
f l
1 0
ac cor
n ed</w>
1 3</w>
em s</w>
ef for
par tic
m is
mini str
行 为</w>
c ar
or der</w>
e duc
co operation</w>
任 何</w>
regi onal</w>
主 义</w>
c ent</w>
af ter</w>
200 6</w>
世 界</w>
s en
1 8</w>
这 个</w>
作 为</w>
vi ol
a m</w>
ag re
b an
l an
cri min
b el
s aid</w>
bu il
k ed</w>
公 司</w>
建 立</w>
1 6</w>
201 0</w>
这 种</w>
shi p</w>
确 保</w>
wh at</w>
教 育</w>
m an</w>
t ly</w>
num ber</w>
m u
lo w</w>
ur e</w>
b ers</w>
0 00</w>
因 为</w>
因 此</w>
提 交</w>
已 经</w>
con ference</w>
ta ke</w>
is m</w>
ye ars</w>
200 7</w>
200 9</w>
如 果</w>
d y</w>
w s</w>
fu l</w>
部 门</w>
ar ds</w>
el ec
c r
measu res</w>
美 元</w>
ac h
n on</w>
par ties</w>
ta k
re sul
righ t</w>
tri bu
in i
in stitu
注 意</w>
repres ent
ou t
si ble</w>
he al
fol low
l and</w>
缔约 国</w>
com e</w>
地 区</w>
re le
ter s</w>
ter r
f ra
sh all</w>
po li
su m
parti cip
hi gh</w>
di rec
h ol
manag ement</w>
200 4</w>
主 席</w>
par ty</w>
servic es</w>
n i
al iz
af ric
is e</w>
& #
it e</w>
r an
1 7</w>
c ul
finan cial</w>
d oc
ch ar
for m</w>
c an
offic e</w>
is t</w>
wor king</w>
m r
le vel</w>
j ect</w>
al u
c a
en ts</w>
文 件</w>
p ur
n ec
2 1</w>
resour ces</w>
201 1</w>
2 5</w>
m ember</w>
u p
par ag
o k</w>
自 己</w>
m ust</w>
实 现</w>
援 助</w>
之 间</w>
d es
pro pos
organiz ations</w>
g s</w>
pro cess</w>
&# 9
g lo
期 间</w>
ff e
po in
sh o
th en</w>
先 生</w>
si ve</w>
1 9</w>
in ce</w>
effor ts</w>
po si
s ou
im pro
wh ile</w>
s a
ne ed</w>
成 员</w>
e u
草 案</w>
b ot
举 行</w>
a ff
li f
dra ft</w>
le ar</w>
这 一</w>
&apos; t</w>
en vi
wh ere</w>
信 息</w>
heal th</w>
ex t</w>
cen tr
ce p
关 系</w>
in ing</w>
mem bers</w>
审 议</w>
st ri
中 国</w>
envi ron
1 8
con tribu
环 境</w>
ord in
d es</w>
st er</w>
p a
pre sid
b er
organiz ation</w>
bu d
得 到</w>
fur ther</w>
li ke</w>
增 加</w>
ab ility</w>
美 国</w>
glo b
mr .</w>
str at
5 0</w>
表 示</w>
par t</w>
pro ce
基 金</w>
200 0</w>
be ing</w>
en d</w>
200 3</w>
ac coun
各 国</w>
ad di
19 8
al i
educ ation</w>
h u
共 和
3 1</w>
b ased</w>
provi de</w>
auth or
国 际
n or
其 中</w>
. 1</w>
si s</w>
2 2</w>
fi c</w>
作 用</w>
代 表
领 域</w>
assi stance</w>
l ed</w>
201 2</w>
pr in
b ility</w>
参 与</w>
w a
leg al</w>
as es</w>
an ts</w>
l l</w>
全 球</w>
y ing</w>
poli tical</w>
考 虑</w>
ic ation</w>
实 施</w>
on d</w>
issu es</w>
武 器</w>
with in</w>
ma ke</w>
获 得</w>
2 4</w>
p ul
200 2</w>
ou s
但 是</w>
审 查</w>
o ver
li m
g es</w>
st ed</w>
th er
b il
e d
共和 国</w>
r ul
中 心</w>
ver s
2 3</w>
f am
st ren
re public</w>
chin a</w>
il y</w>
m ission</w>
con tro
相 关</w>
stren g
方 法</w>
tak en</w>
l in
o f
开 展</w>
sit u
b asi
en sure</w>
s ol
有 效</w>
指 出</w>
doc u
sel f</w>
de p
con t
d at
ar ly</w>
k no
bot h</w>
be fore</w>
c ed</w>
ad ministr
i i</w>
c lo
持 续</w>
一 项</w>
200 1</w>
am er
me di
a in</w>
ho we
howe ver</w>
g ro
程 序</w>
tre at
hi m</w>
re view</w>
p ing</w>
re co
se t</w>
员 国</w>
recommen d
开 始</w>
ini ti
pl es</w>
li on</w>
ta in</w>
v en</w>
th ree</w>
develop ing</w>
讨 论</w>
ce i
se e</w>
s ince</w>
ag end
at t
st af
ne e
m ul
战 略</w>
一 种</w>
eu ro
ho w</w>
are as</w>
政 治</w>
import ant</w>
ac hi
protec tion</w>
polic y</w>
g o</w>
provi ded</w>
techn olo
staf f</w>
com ple
时 间</w>
由 于</w>
glob al</w>
chan ge</w>
agend a</w>
rap h</w>
enc y</w>
parag raph</w>
议 程</w>
代表 团</w>
pers ons</w>
plo y
rel ated</w>
com pl
h ar
2 6</w>
及 其</w>
一 步</w>
tra ining</w>
作 出</w>
资 料</w>
处 理</w>
正 在</w>
能 够</w>
fi ed</w>
d ate</w>
presid ent</w>
co ordin
许 多</w>
ati c</w>
201 3</w>
协 调</w>
目 前</w>
peri od</w>
con f
o l</w>
s es</w>
follow ing</w>
ati ves</w>
rele v
人 民</w>
cap ac
i an</w>
deci sion</w>
小 组</w>
发 展
2 7</w>
解 决</w>
commun ity</w>
g ed</w>
pl an
pe ace</w>
方 式</w>
c us
2 8</w>
ex am
i l</w>
第 二
vel y</w>
v ari
支 助</w>
re cei
program mes</w>
预 算</w>
consi der
hel d</w>
同 时</w>
inte gr
fo re
什 么</w>
di ffe
它 们</w>
提 高</w>
amer ic
i p
m it
su st
ti on
e ach</w>
t ors</w>
s s</w>
po w
n er
a k
意 见</w>
st er
t en</w>
人 口</w>
199 9</w>
del eg
hi gh
ot e</w>
r is
s ame</w>
an n
b ro
fi el
不 是</w>
tra de</w>
不 同</w>
ai r</w>
ati on
6 0</w>
th ing</w>
relev ant</w>
is l
非 洲</w>
u al</w>
c ess
sust ain
一 次</w>
l ab
g ress</w>
pro bl
1 5
dis cus
b en
el l
事 务</w>
工作 人员</w>
am ong</w>
ke e
servic e</w>
ac e
任 务</w>
partic ular</w>
sch o
pl ace</w>
fic ation</w>
进 一步</w>
利 用</w>
s c
c all
法 院</w>
2 9</w>
n uc
the re
机 制</w>
ex pres
参 加</w>
lif e</w>
p en
成 为</w>
4 0</w>
ad v
a use</w>
res t</w>
e ments</w>
b us
生 活</w>
条 约</w>
mar ke
it or
buil ding</w>
wor k
y p
ti c</w>
取 得</w>
培 训</w>
a im
s om
秘书 处</w>
j un
dec ember</w>
ap pe
199 8</w>
标 准</w>
c y</w>
al e</w>
减 少</w>
ma j
调 查</w>
特 派
nuc lear</w>
特派 团</w>
con sul
具 有</w>
no v
p i
po pul
al y
re ad
e f</w>
qu es
t or
ec ted</w>
situ ation</w>
ag es</w>
ten tion</w>
s ing</w>
di es</w>
secret ari
th ir
effec tive</w>
adop ted</w>
with out</w>
stan d
go od</w>
斯 坦</w>
s m
l ine</w>
requ est
cour t</w>
bec ause</w>
1 3
说 明</w>
sec ond</w>
制 定</w>
de part
ob jec
accor d
希 望</w>
in dic
e t</w>
reg ul
dat a</w>
e ty</w>
pl an</w>
而 且</w>
ec u
tur al</w>
确 定</w>
m ec
制 度</w>
文 化</w>
m ed</w>
capac ity</w>
continu e</w>
这 样</w>
nec ess
存 在</w>
j ust</w>
原 则</w>
ro le</w>
i d</w>
fac il
部 队</w>
s ci
目 的</w>
mec han
ma in</w>
平 等</w>
l ong</w>
establish ed</w>
bo ard</w>
ac cess</w>
o m</w>
g er</w>
现 在</w>
pr is
ic ations</w>
em p
发展 中
发展中 国家</w>
secretari at</w>
it em</w>
ol d</w>
评 估</w>
j us
de red</w>
for ce</w>
techn ical</w>
loc al</w>
框 架</w>
数 据</w>
id enti
各 种</w>
发 生</w>
contro l</w>
进 程</w>
prin ci
ou ra
pro m
n at
ob ser
are a</w>
o ff
tain ed</w>
con tr
w ater</w>
d om
分 析</w>
强 调</w>
we ap
ta ble</w>
办 法</w>
. 2</w>
sou th</w>
ev en</w>
19 7
pl ac
un d
ex per
此 外</w>
c ase</w>
jus ti
范 围</w>
re li
reg ard</w>
di d</w>
si de</w>
an aly
repor ts</w>
冲 突</w>
hu man
vi l</w>
av ail
mil lion</w>
pe ace
接 受</w>
reco gn
1 7
b ri
地 方</w>
s pe
机 会</w>
con di
it ary</w>
pro gress</w>
im p
gen der</w>
de mo
dep end
pos sible</w>
pro f
为 了</w>
fiel d</w>
f a
se ver
应 该</w>
pres ent</w>
条 件</w>
inv ol
appro pri
in ess</w>
t ot
费 用</w>
以 便</w>
recommend ations</w>
vi sion</w>
结 果</w>
ter min
le ad
regi on</w>
应 当</w>
工作 组</w>
res ear
w ing</w>
ex ecu
歧 视</w>
su c
责 任</w>
sy st
n al</w>
造 成</w>
对 于</w>
jun e</w>
ic e</w>
发 言</w>
犯 罪</w>
wh e
to w
ve ment</w>
ffic i
fra me
d ge</w>
是 否</w>
ig n</w>
em ploy
r y</w>
, 000</w>
dis crimin
en ing</w>
l ess</w>
行 政</w>
不 能</w>
consul t
必 要</w>
pri v
con stitu
as s</w>
g er
con clu
基 础</w>
ful l</w>
conf lic
f oc
it al</w>
viol ence</w>
ent ly</w>
resp ect</w>
chil d</w>
re duc
fun d</w>
就 是</w>
c ing</w>
自 由</w>
uni vers
ex peri
ur al</w>
pro mo
ar t</w>
ci es</w>
represent ative</w>
1 4
最 后</w>
leg isl
贸 易</w>
iz ed</w>
受 到</w>
s k
企 业</w>
正 式</w>
产 生</w>
mat er
pro ject</w>
tin gs</w>
f er
p t
ci vil</w>
bud get</w>
o p</w>
g ing</w>
w ays</w>
适 当</w>
1 6
c ases</w>
按 照</w>
sti ll</w>
accord ance</w>
st or
联 盟</w>
necess ary</w>
afric a</w>
jo in
sup por
b ur
ve st
家 庭</w>
维 持</w>
fun c
mil itary</w>
建 设</w>
technolo gy</w>
v alu
con duc
h al
p al
develop ed</w>
grou ps</w>
si bility</w>
an t
进 展</w>
投 资</w>
ti m
会 员国</w>
d on</w>
ass ess
1 .
gen er
indi vi
govern mental</w>
设 立</w>
soci ety</w>
办 事
sustain able</w>
str ic
201 4</w>
pre par
知 道</w>
th ough</w>
in du
e gi
并 且</w>
办事 处</w>
消 除</w>
fam ily</w>
popul ation</w>
com b
institu tions</w>
indivi du
g a
l es</w>
暴 力</w>
利 亚</w>
tic s</w>
市 场</w>
t t
a de
mit ted</w>
incre ase</w>
ju ly</w>
strat egi
全 面</w>
i st
sum m
ad vis
缔约 方</w>
英 语</w>
两 个</w>
basi s</w>
帮 助</w>
depart ment</w>
gi ven</w>
ati s
n er</w>
in vest
mu ch</w>
ari an</w>
d a
polic e</w>
ke y</w>
ben ef
如 何</w>
l it
e i
avail able</w>
c ro
1 ;</w>
&#9 1;</w>
enc oura
专 家</w>
oper ations</w>
负 责</w>
up on</w>
sp ec
pr ac
or ity</w>
m en</w>
re main
it ation</w>
2 .
frame work</w>
in es</w>
som e
咨 询</w>
形 式</w>
nee ds</w>
diffe rent</w>
environ ment</w>
用 于</w>
si onal</w>
polic ies</w>
ch all
ter m</w>
d on
terr or
he ad
inclu de</w>
do m</w>
resear ch</w>
h ou
199 6</w>
justi ce</w>
司 法</w>
f re
承 诺</w>
pro jec
in ation</w>
requi re
完 成</w>
cur rent</w>
u e</w>
变 化</w>
demo cr
具 体</w>
sm all</w>
g n</w>
fi f
w ar
h en
appropri ate</w>
tot al</w>
严 重</w>
be g
air s</w>
过 程</w>
speci fic</w>
共 同</w>
sever al</w>
ou ght</w>
鼓 励</w>
199 7</w>
t el
l ast</w>
posi tion</w>
以 色
e ve</w>
o wn</w>
in tro
设 施</w>
资 金</w>
continu ed</w>
struc tion</w>
协 助</w>
not e</w>
fore ign</w>
欢 迎</w>
stan ding</w>
人 们</w>
as soci
ful ly</w>
各 项</w>
例 如</w>
at ely</w>
propos ed</w>
199 4</w>
maj or</w>
ac y</w>
c o</w>
mee tings</w>
k now</w>
crimin al</w>
sp ace</w>
时 候</w>
com pe
f ri
consider ation</w>
bel i
sign i
之 后</w>
充 分</w>
thir d</w>
in d</w>
pers on</w>
j an
issu e</w>
fu ture</w>
pu t</w>
o bl
f y</w>
k o
euro pe
安 排</w>
agre ement</w>
做 法</w>
一 切</w>
col l
d ers</w>
人 道
bus iness</w>
b re
义 务</w>
se pt
to ber</w>
第 三
an other</w>
fo od</w>
am oun
3 ;</w>
&#9 3;</w>
sept ember</w>
oc tober</w>
signi fic
尤 其</w>
gre at</w>
add res
do wn</w>
vari ous</w>
地 位</w>
改 革</w>
li ght</w>
ac ts</w>
控 制</w>
del i
w ard</w>
consi dered</w>
n s</w>
europe an</w>
afric an</w>
se qu
is ra
出 现</w>
尼 亚</w>
discrimin ation</w>
l at
de termin
这 方面</w>
inv esti
th em
认 识</w>
n ess</w>
investi g
基 本</w>
或 者</w>
涉 及</w>
weap ons</w>
ne l</w>
hel p</w>
it arian</w>
那 些</w>
办 公
b ar
op port
opport un
govern ments</w>
性 别</w>
provi sions</w>
vel s</w>
in depend
sec tor</w>
c am
do es</w>
pers on
i als</w>
p an
t le</w>
scho ol</w>
concer ned</w>
partic ul
ac k
d ence</w>
obl ig
b al
ab o
199 5</w>
以色 列</w>
监 测</w>
accoun t</w>
s .</w>
6 3</w>
en ni
协 定</w>
b ack</w>
d en
艾 滋
there fore</w>
human itarian</w>
nov ember</w>
imple men
p at
str u
re as
h ere</w>
s ha
de b
3 5</w>
go ing</w>
银 行</w>
th s</w>
选 举</w>
accor ding</w>
syst ems</w>
批 准</w>
l ing</w>
iz ation</w>
le ar
业 务</w>
pow er</w>
表 明</w>
th in
t ary</w>
非 政府</w>
定 书</w>
requi red</w>
centr al</w>
read y</w>
尽 管</w>
uni on</w>
g ical</w>
add ress</w>
4 5</w>
议 定书</w>
e k</w>
n am
之 一</w>
仍 然</w>
非 常</w>
particul arly</w>
mar ch</w>
e very</w>
l s</w>
pl y</w>
f il
us ing</w>
事 项</w>
prom ote</w>
marke t</w>
ci r
mul ti
日 至</w>
form s</w>
ma king</w>
v o
not ed</w>
之 前</w>
le vels</w>
conflic t</w>
健 康</w>
t yp
stat us</w>
op e</w>
en cies</w>
kee ping</w>
treat y</w>
en er
po ver
ac c
p tion</w>
administr ative</w>
谈 判</w>
t ar
gu id
当 局</w>
pl ay
addi tional</w>
然 而</w>
以 下</w>
挑 战</w>
kno w
恐 怖
abo ve</w>
call ed</w>
个 人</w>
p ap
ish ed</w>
规 则</w>
办公 室</w>
enni um</w>
condi tions</w>
addi tion</w>
rul es</w>
巴 勒
tu al</w>
deleg ation</w>
me ans</w>
struc ture</w>
f our</w>
采 用</w>
pro to
dec lar
ex ten
sec u
de fin
hal f</w>
mi gr
利 益</w>
resul ts</w>
chin ese</w>
reg ar
streng th
at ory</w>
priv ate</w>
intro duc
pover ty</w>
6 5</w>
import ance</w>
th ers</w>
法 庭</w>
5 5</w>
管 理
at ors</w>
直 接</w>
199 3</w>
d a</w>
以 来</w>
know le
适 用</w>
pur pos
rec or
国 内</w>
增 长</w>
原 因</w>
1 00</w>
es tin
4 8</w>
sh or
incre ased</w>
阿 拉
re tur
生 产</w>
resul t</w>
du e</w>
an g
le t
ta king</w>
particip ation</w>
v ol
介 绍</w>
改 善</w>
oc cu
c are</w>
5 7</w>
一 般</w>
en ces</w>
en ted</w>
em er
de f
ab il
第 十
6 7</w>
一 直</w>
成 果</w>
6 1</w>
状 况</w>
第 一
ev alu
projec ts</w>
p ed</w>
pro per
s our
d r
5 8</w>
fi ve</w>
stu dy</w>
si z
sec tion</w>
aff airs</w>
bo dy</w>
coordin ation</w>
pre hen
世 界
3 3</w>
开 发
收 入</w>
require ments</w>
ne t
pal estin
aliz ation</w>
u ary</w>
难 民</w>
ener gy</w>
author ities</w>
w r
6 4</w>
3 2</w>
ri l</w>
b est</w>
execu tive</w>
de si
限 制</w>
sa fe
s al
h er
禁 止</w>
jan uary</w>
关 切</w>
u r</w>
虽 然</w>
v il
关 注</w>
lar ge</w>
ap ril</w>
es p
ar ma
imp act</w>
c at
案 件</w>
成 功</w>
gro w
发 现</w>
pur su
无 法</w>
appro ach</w>
produc tion</w>
5 9</w>
tow ards</w>
com prehen
f ree</w>
i ous</w>
docu ment</w>
e th
si on
enti al</w>
bo dies</w>
f ound</w>
bet ter</w>
whe ther</w>
recei ved</w>
两 年</w>
in ten
du ce</w>
appl ication</w>
201 5</w>
comm on</w>
6 2</w>
n ext</w>
报 告
ti al</w>
grow th</w>
sub stan
独 立</w>
w ar</w>
of ten</w>
con ven
d ru
gi ve</w>
lan gu
. 3</w>
a z
r us
al ia</w>
mon itor
不 会</w>
5 1</w>
sub mitted</w>
or ig
monitor ing</w>
附 件</w>
employ ment</w>
ac tions</w>
qu ar
cri me</w>
represent atives</w>
优 先</w>
cul tural</w>
ch air
arma ment</w>
人道 主义</w>
d ents</w>
comp any</w>
ques tion</w>
这 项</w>
3 6</w>
poin t</w>
ti mes</w>
高 级
p e</w>
5 2</w>
a k</w>
导 致</w>
cur ren
st re
strat eg
at tention</w>
ac cep
3 4</w>
社 区</w>
dis armament</w>
l on
评 价</w>
最 近</w>
of f</w>
ris k</w>
5 3</w>
临 时</w>
内 容</w>
esp eci
同 意</w>
结 构</w>
de m
au g
这 是</w>
gi r
大 学</w>
监 督</w>
4 9</w>
ag encies</w>
事 件</w>
过 去</w>
especi ally</w>
lo o
esti m
报告 员</w>
person nel</w>
s an
e p</w>
稳 定</w>
因 素</w>
3 7</w>
ri ed</w>
集 团</w>
i ed</w>
to ok</w>
le ast</w>
in ter</w>
declar ation</w>
ol s</w>
6 6</w>
stat ement</w>
ear ly</w>
bec ome</w>
esti c</w>
产 品</w>
re fl
at or</w>
s em
comprehen sive</w>
th re
strateg y</w>
立 法</w>
保 障</w>
ce ment</w>
aliz ed</w>
5 4</w>
b it
su g
is ting</w>
v ity</w>
联 合</w>
5 6</w>
m al
dom estic</w>
ous ly</w>
领 土</w>
de sign
ban k</w>
co st</w>
re fu
l u
treat ment</w>
join t</w>
it er
只 有</w>
de n</w>
environ mental</w>
c ity</w>
b ru
gu e</w>
设 计</w>
. 5</w>
vic ti
exam ple</w>
人 类</w>
城 市</w>
f ace</w>
agre ed</w>
宣 言</w>
qu ality</w>
go ti
空 间</w>
s on</w>
pre v
establish ment</w>
e ven
probl ems</w>
防 止</w>
o w
结 束</w>
ne goti
co l</w>
总 统</w>
o d
经 济
ic s</w>
了 解</w>
mi ght</w>
princi ples</w>
pr acti
centr e</w>
di ffic
al o
mon e
diffic ul
si x
材 料</w>
pro cess
积 极</w>
in stru
现 有</w>
gra ph
重 申</w>
多 数</w>
o ds</w>
. 4</w>
理 会</w>
impro ve</w>
ti vely</w>
pre vention</w>
需 求</w>
proto col</w>
ro om</w>
某 些</w>
一 致</w>
s ing
选 择</w>
b an</w>
per man
for ces</w>
e ast</w>
chall eng
to ge
concer n</w>
c le
d ays</w>
us es</w>
ric ul
一 份</w>
履 行</w>
3 9</w>
c y
cl aim
j ap
风 险</w>
st a
en ter
an ne
facil it
toge ther</w>
str y</w>
po l
安 理会</w>
ch o
a ffec
t es</w>
r ate</w>
ar ound</w>
cu st
por te
in e
me d
rul e</w>
stand ards</w>
y oun
pos t</w>
rec ent</w>
运 动</w>
op en</w>
联 系</w>
anne x</w>
ar med</w>
at h</w>
incre as
v al</w>
f er</w>
3 8</w>
学 校</w>
rap porte
巴勒 斯坦</w>
欧 洲</w>
ti z
恐怖 主义</w>
t em
prac tic
协 议</w>
gen ous</w>
4 4</w>
co sts</w>
consi der</w>
ju dic
ar ing</w>
cont ext</w>
our s</w>
完 全</w>
ex pl
4 7</w>
refu ge
t an
- -
收 到</w>
加 入</w>
日 本</w>
ec ts</w>
ster n</w>
经 费</w>
pre vi
c al</w>
m er
adop tion</w>
4 6</w>
ac tive</w>
go als</w>
n ers</w>
wel com
划 署</w>
程 度</w>
fac t</w>
resolu tions</w>
ter ms</w>
ist an</w>
advis ory</w>
achi ev
广 泛</w>
o s</w>
l ist</w>
for man
equ ality</w>
ra is
th us</w>
4 1</w>
m un
联合 国
indi genous</w>
si a</w>
perman ent</w>
打 击</w>
plan ning</w>
s olu
le t</w>
requ est</w>
inclu ded</w>
concer ning</w>
invest ment</w>
to o</w>
provi sion</w>
全 国</w>
un ti
阶 段</w>
b or
per forman
有 人</w>
al though</w>
man date</w>
针 对</w>
4 2</w>
威 胁</w>
ex isting</w>
ch i
ou gh
综 合</w>
repor ting</w>
伊 拉
er ing</w>
aug ust</w>
w ed</w>
analy sis</w>
al ready</w>
承 认</w>
实 际</w>
vic e</w>
ar ms</w>
俄 罗
al low
sub ject</w>
b ed</w>
学 生</w>
respon se</w>
equ ip
administr ation</w>
呼 吁</w>
来 自</w>
t al
wor ks</w>
hou se</w>
e ffici
respon sibility</w>
cor por
americ a</w>
规 划</w>
to day</w>
me tho
americ an</w>
fol low</w>
legisl ation</w>
请 求</w>
保 证</w>
比 亚</w>
土 著</w>
受 害
thin k</w>
unti l</w>
tra di
amoun t</w>
w an
ci vil
bru ary</w>
n ation
request ed</w>
扩 大</w>
is ms</w>
abil ities</w>
6 8</w>
s ex
iz e</w>
ti ves</w>
request s</w>
repor ted</w>
fe bruary</w>
cer tain</w>
军 事</w>
e ff
ag ency</w>
ar ran
网 络</w>
警 察</w>
危 机</w>
probl em</w>
ade qu
el im
part ner
en s</w>
t as
推 动</w>
se tt
一 起</w>
重 新</w>
comm is
regar ding</w>
h ome</w>
采 取
4 3</w>
m p
signific ant</w>
起 来</w>
知 识</w>
u n</w>
rapporte ur</w>
伙 伴</w>
7 0</w>
一 样</w>
p t</w>
面 临</w>
performan ce</w>
at s</w>
d ated</w>
terror ism</w>
r ac
p ay
i ra
一 名</w>
tran si
streng then</w>
proce dur
pos ed</w>
fun ds</w>
论 坛</w>
ne t</w>
con tained</w>
du res</w>
wi de</w>
peace keeping</w>
遵 守</w>
democr atic</w>
c lim
oun d
he ad</w>
proce dures</w>
对 话</w>
en ed</w>
in ed</w>
ye t</w>
上 述</w>
g l
整 个</w>
ar a
专 员</w>
ha ving</w>
协 商</w>
expres sed</w>
国 家
i de
comp an
a w
ag ain</w>
纳 入</w>
pap er</w>
plac ed</w>
联 邦</w>
offic ial</w>
assess ment</w>
科 学</w>
in come</w>
准 则</w>
con nec
t ting</w>
practi ce</w>
c al
devel op</w>
ta il
定 期</w>
b ra
ministr y</w>
条 款</w>
制 订</w>
不 过</w>
char ac
as p
发 挥</w>
指 导</w>
te am</w>
lit tle</w>
t ation</w>
还 是</w>
strength ening</w>
8 0</w>
你 们</w>
di t</w>
欧 洲
该 国</w>
人 民
emp ha
mis sions</w>
h y
de l</w>
d ro
记 录</w>
拥 有</w>
challeng es</w>
res er
p ast</w>
ag ed</w>
ha p
核 武器</w>
ex er
author ity</w>
o thers</w>
成 立</w>
c ent
审 计</w>
m id
practic es</w>
r ati
st atis
provi des</w>
b un
al ways</w>
con struction</w>
e ver</w>
n a
更 加</w>
fe w</w>
univers ity</w>
st ar
长 期</w>
st ers</w>
knowle dge</w>
m ing</w>
reg ular</w>
ex plo
水 平</w>
群 体</w>
econom y</w>
kno wn</w>
ann ual</w>
a men
伊拉 克</w>
我 国</w>
olo gical</w>
si an</w>
还 有</w>
符 合</w>
gu ar
enti t
违 反</w>
w ant</w>
很 多</w>
coll ec
rel ating</w>
o od</w>
土 地</w>
imple ment</w>
pl ay</w>
re form</w>
youn g</w>
mechan isms</w>
lab our</w>
chan ges</w>
sci enti
po ten
eff ect</w>
a red</w>
e vi
op s</w>
从 而</w>
m it</w>
经 验</w>
孩 子</w>
ai m</w>
ve red</w>
e ver
valu e</w>
ne ver</w>
gr ound</w>
st ra
provi ding</w>
当 地</w>
所 以</w>
des cri
设 备</w>
f ar</w>
o w</w>
达 国家</w>
发 达国家</w>
非 法</w>
保 持</w>
exper ts</w>
h on
basi c</w>
l ack</w>
重 点</w>
财 政</w>
第 四
prof es
. .
y s</w>
一 级</w>
侵 犯</w>
不 断</w>
contribu tions</w>
fer red</w>
deci ded</w>
v in
准 备</w>
tra ffic
si mil
每 个</w>
inte rest</w>
shi ps</w>
proper ty</w>
l ater</w>
保 健</w>
s ay</w>
开 发</w>
le a
经 常</w>
reli gi
li gh
同 样</w>
d ent</w>
vie ws</w>
un c
达 到</w>
di alo
199 0</w>
lan ds</w>
ag ricul
promo tion</w>
ol e</w>
un it</w>
f our
st ory</w>
d le</w>
1 2
peo ples</w>
明 确</w>
公 民</w>
pro secu
mat ter</w>
基 金
equip ment</w>
deci sions</w>
预 防</w>
公 共
p ass
199 2</w>
in f
d ri
显 示</w>
结 论</w>
通 常</w>
qu i
or i
b a
no .</w>
fl u
e t
cour se</w>
6 9</w>
om s</w>
on ce</w>
ap poin
stri bu
裁 军</w>
民 主</w>
v ation</w>
星 期
感 到</w>
it ory</w>
di stribu
w w
mee t</w>
addres sed</w>
victi ms</w>
合 同</w>
o se</w>
exer c
i ii</w>
进 入</w>
strategi c</w>
n ame</w>
ph y
病 毒</w>
li a
i tion</w>
direc tor</w>
观 察
基 于</w>
助 于</w>
质 量</w>
mone y</w>
ro ad</w>
mat ters</w>
ther n</w>
未 来</w>
orig in
nee ded</w>
nat ural</w>
成 员国</w>
asi a</w>
an ti
lab or
li ving</w>
en han
docu ments</w>
respon sible</w>
sit e</w>
organiz ed</w>
最 大</w>
si m
普 遍</w>
let ter</w>
官 员</w>
il i
改 进</w>
下 列</w>
o di
确 认</w>
mini ster</w>
ever y
x im
f ail
safe ty</w>
finan cing</w>
工 具</w>
伙 伴
individu al</w>
t on</w>
establ ish</w>
恢 复</w>
做 出</w>
di vision</w>
ver age</w>
宪 法</w>
inte re
work ers</w>
oblig ations</w>
应 用</w>
f el
9 0</w>
ques tions</w>
fre e
mechan ism</w>
und p</w>
宣 布</w>
k es</w>
年 度</w>
foc us</w>
m ic
nor th</w>
suc cess
带 来</w>
伙伴 关系</w>
s or
民 主
si x</w>
r ing</w>
high er</w>
申 请</w>
independ ent</w>
clim ate</w>
贡 献</w>
ing ly</w>
bud ge
ser ious</w>
reduc tion</w>
有 些</w>
a u</w>
dialo gue</w>
not es</w>
la ws</w>
法 官</w>
procedur e</w>
exp ected</w>
规 模</w>
me th
a wa
pre ci
entit led</w>
ch em
experi ence</w>
lo ok</w>
内 部</w>
给 予</w>
3 0
大 量</w>
elec tr
应 对</w>
ch ed</w>
千 年</w>
eng l
n a</w>
traffic king</w>
人 数</w>
terr itory</w>
ple ase</w>
看 到</w>
d am
t ent</w>
objec tive</w>
mon ths</w>
旨 在</w>
as h
5 00</w>
改 变</w>
integr ation</w>
resp ec
有 助于</w>
l d
lim ited</w>
7 7</w>
d an
女 性</w>
indu stri
c lear</w>
ach ed</w>
hol d</w>
员 额</w>
palestin ian</w>
medi a</w>
commit ment</w>
commun ication</w>
解 释</w>
co de</w>
inter nal</w>
就 业</w>
p .
phy si
mo del</w>
compe ti
g est</w>
tri bun
民 族</w>
vol un
prev ent</w>
arran ge
consult ations</w>
engl ish</w>
所 述</w>
tu res</w>
局 势</w>
宗 教</w>
保 留</w>
tain ing</w>
来 说</w>
j ur
pl ans</w>
超 过</w>
ci tiz
aff ir
isra el</w>
传 统</w>
ex change</w>
o t</w>
s w
种 族
gre ater</w>
sex ual</w>
evalu ation</w>
ne w
ac ro
ara b</w>
d ly</w>
desi gn</w>
fin d</w>
m ary</w>
v al
adequ ate</w>
公 共</w>
en for
st oc
con fi
要 性</w>
form er</w>
at ure</w>
20 0</w>
ver s</w>
curren tly</w>
允 许</w>
现 象</w>
价 值</w>
tr u
证 明</w>
li ber
环 境
initi atives</w>
x i
行 动
abl y</w>
以 上</w>
langu age</w>
nat ure</w>
社 会
t ory</w>
s ent</w>
专 业</w>
扩 散</w>
su s</w>
一 位</w>
b ia</w>
four th</w>
cap ital</w>
那 么</w>
缺 乏</w>
重 大</w>
lo ve</w>
fun ding</w>
y or
la un
de ath</w>
can not</w>
只 是</w>
por ts</w>
se par
med ical</w>
ac i
m a</w>
如 此</w>
auth or</w>
境 内</w>
文 书</w>
u res</w>
guid el
编 写</w>
terr itor
反 对</w>
fin al</w>
cri sis</w>
部 长</w>
produc ts</w>
wh y</w>
pan el</w>
stu dents</w>
资 产</w>
c um
支 付</w>
今 天</w>
s po
组 成</w>
invol ved</w>
w in
出 口</w>
stat ements</w>
w at
基金 会</w>
西 亚</w>
反 映</w>
举 办</w>
3 .
刑 事</w>
d ates</w>
regul ations</w>
倡 议</w>
l .
女 士</w>
大 多数</w>
comm er
poten tial</w>
b ir
d d
另 外</w>
suppor ted</w>
c all</w>
ju d
an y
199 1</w>
m ag
一 部分</w>
&apos; m</w>
wh ole</w>
previ ous</w>
t om
r ural</w>
pri ority</w>
oper ational</w>
生 物</w>
残 疾
印 度</w>
h and</w>
promo ting</w>
for um</w>
quar ters</w>
conduc t</w>
受害 者</w>
c op
se e
本 国</w>
at ten
se ts</w>
调 整</w>
equ al</w>
euro pe</w>
协 会</w>
sur ve
声 明</w>
princi ple</w>
落 实</w>
然 后</w>
re al</w>
en h
武 装
手 段</w>
chair man</w>
rec all
gen cy</w>
议 会</w>
一 定</w>
for ward</w>
qu e</w>
管 制</w>
as h</w>
yor k</w>
列 入</w>
f r
美 洲</w>
系 列</w>
理 由</w>
achi eve</w>
gi es</w>
w est</w>
尊 重</w>
str ong</w>
net work</w>
ic es</w>
h ous
commis sion
提 到</w>
or ities</w>
数 量</w>
贩 运</w>
意 义</w>
总 部</w>
d one</w>
h un
研 究
jap an</w>
gir ls</w>
adv an
k ind</w>
car ried</w>
m .</w>
通 知</w>
指 标</w>
下 午</w>
indu stry</w>
offic ials</w>
stric t</w>
ex c
dis a
十 年</w>
guar an
refuge es</w>
条 例</w>
purpos e</w>
宣 传</w>
b a</w>
discus sion</w>
le ft</w>
分 配</w>
viol ations</w>
ira q</w>
ra di
cep t</w>
万 美元</w>
form ul
c el
第 五
构 成</w>
ven ess</w>
国际 法</w>
一 点</w>
编 制</w>
compl ain
实 体</w>
回 顾</w>
clo se</w>
de tail
tu ally</w>
affec ted</w>
issu ed</w>
w ish</w>
agre ements</w>
under standing</w>
j e
艾滋 病</w>
农 业</w>
拘 留</w>
facil ities</w>
st ation</w>
s we
a way</w>
th an
mo der
part ners</w>
能 源</w>
L .
计 划署</w>
re ly</w>
er ation</w>
&apos; re</w>
ste ps</w>
re sid
y ou
c ra
危 险</w>
rel ation
over all</w>
5 0
战 争</w>
gr an
p ay</w>
st ated</w>
满 足</w>
on es</w>
7 3</w>
加 拿
h ours</w>
se a</w>
integr ated</w>
commit ted</w>
con sum
享 有</w>
exp end
模 式</w>
sci ence</w>
opportun ities</w>
2 8
evi dence</w>
金 融
recommen ded</w>
appro ved</w>
re ment</w>
sel ves</w>
ko re
d ou
deleg ations</w>
increas ing</w>
com pu
meth od</w>
机 关</w>
困 难</w>
par a</w>
提 议</w>
mater ial</w>
diffe ren
en jo
commun ities</w>
awa ren
1 ,
委 会</w>
每 年</w>
访 问</w>
贫 穷</w>
recommend ation</w>
i gh
实 行</w>
guidel ines</w>
rus sian</w>
p un
亿 美元</w>
ad a</w>
ess ential</w>
达 成</w>
guaran te
strategi es</w>
单 位</w>
im medi
awaren ess</w>
世 纪</w>
会 议
i ght</w>
commun ications</w>
en ds</w>
vi a</w>
des p
wr it
学 习</w>
tion ed</w>
head quarters</w>
ai ds</w>
第 一</w>
bel ow</w>
ra ther</w>
7 5</w>
法 国</w>
三 个</w>
el s</w>
offic es</w>
避 免</w>
d ar
历 史</w>
olo gy</w>
hi v</w>
担 任</w>
su ffici
行 政
i or</w>
con sequ
民 间</w>
sett le
st and</w>
fif th</w>
v ul
m s.</w>
su d
ill ed</w>
al ter
统 计</w>
pre pa
effec ts</w>
价 格</w>
有 权</w>
领 导</w>
col labor
re ad</w>
exp an
dru g</w>
implemen ted</w>
签 署</w>
mil l
香 港</w>
articl es</w>
甚 至</w>
而 言</w>
resour ce</w>
治 疗</w>
卫 生</w>
compan ies</w>
属 于</w>
后 续</w>
行动 计划</w>
k ing
t est</w>
第 二</w>
in fra
再 次</w>
en s
pri mary</w>
retur n</w>
ap preci
伊 斯
ti s
c ame</w>
最 终</w>
ch am
k ong</w>
in de
po or</w>
fun da
加拿 大</w>
森 林</w>
enh ance</w>
关 键</w>
补 充</w>
in s</w>
o graph
offic ers</w>
stan ces</w>
tribun al</w>
bi ennium</w>
implemen ting</w>
4 .
free dom</w>
fe der
objec tives</w>
metho ds</w>
rel ations</w>
喜 欢</w>
授 权</w>
效 率</w>
英 国</w>
权 力</w>
thr ough
为 此</w>
su per
h ong</w>
mid dle</w>
inform al</w>
or g</w>
opportun ity</w>
compl i
comp on
酷 刑</w>
le ad</w>
登 记</w>
remain s</w>
prepa red</w>
移 民</w>
主 任</w>
trans fer</w>
o s
卫 生
re main</w>
expend it
al low</w>
benef its</w>
protec t</w>
人 权
d ol
f av
其 它</w>
运 输</w>
simil ar</w>
ac ting</w>
direc t</w>
instru ments</w>
sho w</w>
individu als</w>
al ong</w>
c ru
来 源</w>
f ren
bo ok</w>
y a</w>
ser ies</w>
告 诉</w>
li ve</w>
aim ed</w>
li k
pres ented</w>
cul ture</w>
th ings</w>
posi tive</w>
judic ial</w>
sol id
par lia
cat eg
initi ative</w>
te red</w>
br ing</w>
f em
sur ing</w>
语 言</w>
stand ard</w>
y es</w>
若 干</w>
青 年</w>
0 .
非 正式</w>
asp ects</w>
估 计</w>
m y
consi st
支 出</w>
生 产
scienti fic</w>
艾滋 病毒</w>
团 体</w>
ment ary</w>
ch ap
h or
亚 洲</w>
成 本</w>
安 全
through out</w>
各 方</w>
func tions</w>
wor ds</w>
u su
co ven
com ing</w>
propos als</w>
法 律
在 内</w>
至 少</w>
协 调
几 个</w>
基 础
arrange ments</w>
cor e</w>
不 要</w>
感 谢</w>
残疾 人</w>
it self</w>
iz ing</w>
multi lat
pa ren
be half</w>
地 点</w>
&apos; ll</w>
shor t</w>
me an
阿拉 伯</w>
provi sional</w>
re duce</w>
desp ite</w>
empha siz
以 前</w>
c s</w>
regi ons</w>
ill s</w>
w al
kee p</w>
损 失</w>
更 好</w>
re ference</w>
sing le</w>
par ts</w>
vul ner
核 心</w>
相 信</w>
ar ch
重 要性</w>
propos al</w>
2 9
一 年</w>
facilit ate</w>
de ploy
引 起</w>
tar ge
trans port</w>
z e</w>
尚 未</w>
exerc ise</w>
pursu ant</w>
证 据</w>
z e
收 集</w>
conduc ted</w>
形 成</w>
it ems</w>
t ext</w>
p ai
.. .</w>
commission er</w>
on g
职 能</w>
re f
beli eve</w>
如 下</w>
外 国</w>
财 务</w>
it or</w>
pre ven
pro hi
媒 体</w>
univers al</w>
ti veness</w>
从 事</w>
采 购</w>
us e
阿 富
ant i</w>
oun ds</w>
dis e
la w
com es</w>
朋 友</w>
exper t</w>
年 代</w>
gu i
process es</w>
特 殊</w>
low er</w>
scho ols</w>
提 案</w>
form ed</w>
概 念</w>
今 后</w>
st e</w>
st res
en suring</w>
te ach
的 话</w>
s la
v ote</w>
工 业</w>
ran ge</w>
德 国</w>
occu p
fam il
difficul t</w>
acro ss</w>
mill ennium</w>
av o
hol ders</w>
j i
比 例</w>
mater ials</w>
d ings</w>
创 造</w>
r ates</w>
poin ts</w>
typ e</w>
增 强</w>
死 亡</w>
最 佳</w>
ari es</w>
inform ed</w>
al ities</w>
as ked</w>
h om
十 分</w>
introduc ed</w>
bec ame</w>
en ding</w>
y u
比 较</w>
sour ce</w>
assi st</w>
king dom</w>
课 程</w>
go t</w>
coven ant</w>
alter n
sem in
第 五</w>
funda mental</w>
sh are</w>
tr ust</w>
al loc
ve ments</w>
财 产</w>
修 订</w>
除 了</w>
po sts</w>
au str
h ard</w>
mo ve</w>
appl ic
min d</w>
achi e
拟 议</w>
isra el
negoti ations</w>
ev a</w>
fren ch</w>
信 息
concer ns</w>
阿富 汗</w>
迅 速</w>
associ ation</w>
步 骤</w>
气 候
发 表</w>
事 务
v ations</w>
beg an</w>
a h</w>
in flu
领 导
bo o
mo vement</w>
7 2</w>
profes sional</w>
tas k</w>
题 为</w>
min im
sign ed</w>
交 流</w>
g ent</w>
b as
out side</w>
summ it</w>
go ods</w>
反 应</w>
hi story</w>
o il</w>
h ope</w>
bro ad
西 班
首 脑
p ic
we ek</w>
cir cum
i ans</w>
constitu tion</w>
re vis
越 来
famil ies</w>
似 乎</w>
j our
首脑 会议</w>
马 里</w>
精 神</w>
re v
观察 员</w>
co oper
infra structure</w>
答 复</w>
自 然
indi a</w>
de mon
si t</w>
st ant</w>
tain s</w>
acti vity</w>
金 融</w>
苏 丹</w>
at eral</w>
recogn ized</w>
elec tion</w>
jo b</w>
s ays</w>
institu te</w>
p a</w>
才 能</w>
真 正</w>
气候 变化</w>
拟 订</w>
so on</w>
r a</w>
c are
共 同
stu dies</w>
hap p
sp a
w ent</w>
comp ens
宪 章</w>
g am
任 命</w>
毒 品</w>
b ack
man ner</w>
f le
f ar
al leg
居 民</w>
ag o</w>
公 众</w>
第二 十
寻 求</w>
st ability</w>
部 署</w>
贸 易
compli ance</w>
定 义</w>
罪 行</w>
农 村</w>
comple te</w>
日 内
专 门</w>
is land</w>
lea ve</w>
partner ship</w>
migr ation</w>
交 易</w>
维 护</w>
统 一</w>
contribu te</w>
主 题</w>
cre ate</w>
fi re</w>
数 据
ni ght</w>
re affir
th y</w>
se en</w>
加 以</w>
理 解</w>
we stern</w>
传 播</w>
call s</w>
她 们</w>
ac ks</w>
鉴 于</w>
cl e</w>
recommen ds</w>
fe d
A dd
feder ation</w>
contribu tion</w>
co vered</w>
identi fied</w>
首 先</w>
观 点</w>
越来 越</w>
欧洲 联盟</w>
cl ass</w>
au d
tel e
tor ture</w>
lik ely</w>
黎 巴
op ini
tradi tional</w>
p aid</w>
s atis
we e
connec tion</w>
cri mes</w>
k in
公 开</w>
mon th</w>
纽 约</w>
in ci
网 站</w>
东 西</w>
under taken</w>
表 现</w>
particip ants</w>
en ded</w>
e a
claim s</w>
最 高</w>
fed eral</w>
multilat eral</w>
them selves</w>
ach es</w>
af gh
man u
b ul
pro lif
债 务</w>
me t</w>
俄罗 斯</w>
自 愿</w>
这 里</w>
体 系</w>
char ter</w>
王 国</w>
feren ces</w>
comb at</w>
dis abilities</w>
敦 促</w>
通 信</w>
3 00</w>
contr act</w>
even ts</w>
re si
依 照</w>
k u
ic ally</w>
an ces</w>
体 制</w>
不 仅</w>
多 边</w>
移 徙</w>
mo ther</w>
vi r
力 量</w>
开发 计划署</w>
cam pai
计 算</w>
israel i</w>
里 亚</w>
新 闻</w>
sc ale</w>
纲 领</w>
l or
黎巴 嫩</w>
st art</w>
政 治
基础 设施</w>
buil d</w>
di ed</w>
tran spa
inclu des</w>
gen eva</w>
赔 偿</w>
商 业</w>
常 驻</w>
ei ther</w>
技 术
0 0
6 .
电 话</w>
st age</w>
adv ant
men tioned</w>
p aci
re stric
enfor cement</w>
pr ice</w>
不 得</w>
ic k
pers onal</w>
sub sequ
prolif eration</w>
重 视</w>
statis tics</w>
fin ance</w>
emer gency</w>
tra vel</w>
tak es</w>
fif ty</w>
un ic
br ought</w>
achiev ed</w>
cri tical</w>
公 平</w>
out come</w>
随 着</w>
im pl
impro ved</w>
予 以</w>
学 家</w>
趋 势</w>
en ty</w>
impro ving</w>
高级 专员</w>
服 务
el ements</w>
legisl ative</w>
良 好</w>
f lo
en able</w>
时 期</w>
召 开</w>
k a</w>
数 字</w>
双 方</w>
h ic
sup ply</w>
类 似</w>
it able</w>
nor m
ann oun
re ferred</w>
事 情</w>
dem and</w>
de tention</w>
人 士</w>
ro w</w>
inter pre
t ren
deb t</w>
effor t</w>
k istan</w>
prepar ation</w>
you th</w>
direc tly</w>
ex ter
f ying</w>
运 作</w>
demon str
解 决
sug ge
go al</w>
in spec
st y
几 乎</w>
性 质</w>
bil ities</w>
5 .
降 低</w>
physi cal</w>
分 别</w>
障 碍</w>
ur ban</w>
工 人</w>
7 6</w>
工 程</w>
le ban
suffici ent</w>
some thing</w>
g res
paci fic</w>
al most</w>
7 4</w>
找 到</w>
a verage</w>
benef it</w>
l ate</w>
澳 大
依 据</w>
govern ance</w>
att emp
bal ance</w>
su sp
立 即</w>
chi ef</w>
fa ther</w>
sur ance</w>
7 1</w>
承 担</w>
estim ated</w>
st ro
can ada</w>
阿 尔
v ot
intere sts</w>
jur is
th ought</w>
eth n
u ti
g ar
effec tively</w>
re ally</w>
c ou
origin al</w>
an im
高 级</w>
ex clu
a .
检 查</w>
那 个</w>
愿 意</w>
下 降</w>
医 疗</w>
relation ship</w>
wh ose</w>
t op
很 大</w>
外 交
si bilities</w>
p il
失 所</w>
i gn
此 类</w>
l a</w>
流 离
流离 失所</w>
背 景</w>
全 部</w>
institu tional</w>
distribu tion</w>
b it</w>
hous ing</w>
ve hic
遭 受</w>
化 学
to p</w>
sour ces</w>
inter governmental</w>
de al</w>
t un
ha m
第 六</w>
身 份</w>
训 练</w>
ca use</w>
容 易</w>
预 期</w>
商 定</w>
检 察
指 控</w>
m ach
年 人</w>
大 部分</w>
ph s</w>
ed ul
requi re</w>
he av
物 质</w>
beli ev
s af
疾 病</w>
un f
chap ter</w>
por ary</w>
一 般
commit ments</w>
破 坏</w>
tur y</w>
ten ance</w>
ex tre
bil lion</w>
预 计</w>
on ic</w>
核 准</w>
粮 食</w>
appl ied</w>
cen tury</w>
gra du
ar bit
日 期</w>
sub si
con c
干 事</w>
多 样
lin es</w>
cent res</w>
武 装</w>
fr ance</w>
顾 问</w>
一 個</w>
sup pl
purpos es</w>
ste p</w>
a .</w>
investig ation</w>
am s</w>
dis pu
u te</w>
or ies</w>
charac ter
pr ise</w>
an a</w>
d y
citiz ens</w>
阿拉 伯
parag ra
elim ination</w>
kore a</w>
is tic</w>
i m</w>
pri or</w>
er y</w>
as sets</w>
no ti
cro ss</w>
paragra phs</w>
fac tors</w>
非 洲
tor al</w>
es ting</w>
新 闻
日内 瓦</w>
wom an</w>
灾 害</w>
sp i
di strict</w>
cust om
religi ous</w>
substan tive</w>
w il
事 实</w>
main tenance</w>
b order</w>
合 作
ill ing</w>
fur ther
ish ing</w>
lon ger</w>
职 业</w>
k ers</w>
特 定</w>
cl aim</w>
sta ke
civil ian</w>
indic ated</w>
i v</w>
lead ers</w>
success ful</w>
邀 请</w>
unic ef</w>
小 时</w>
sch edul
appl y</w>
平 民</w>
dol l
sc ope</w>
elec tions</w>
comple ted</w>
m oun
ph il
particip ate</w>
pris es</w>
amen d
律 师</w>
govern ing</w>
ses sions</w>
ho sp
con sen
arbit r
design ed</w>
suc cess</w>
指 定</w>
f ron
educ ational</w>
circum stances</w>
mar k</w>
一 系列</w>
i j
司 法
ffe red</w>
commer cial</w>
mu si
sec on
飞 机</w>
de al
cre ated</w>
ne ar</w>
associ ated</w>
un its</w>
g ol
sel y</w>
si ght</w>
rec ru
古 巴</w>
marke ts</w>
b all</w>
tw enty</w>
wor d</w>
c r</w>
com par
职 位</w>
这 次</w>
本 身</w>
territor ies</w>
exter nal</w>
peace ful</w>
on going</w>
执 行
con fir
summ ary</w>
举 措</w>
7 8</w>
sy ri
之 外</w>
effec tiveness</w>
出 来</w>
ad or</w>
不 可</w>
bi g</w>
ac tors</w>
贫 困</w>
ver sion</w>
tri al</w>
药 物</w>
磋 商</w>
pris on
贸 发</w>
pres s</w>
revis ed</w>
en ough</w>
reg im
明 显</w>
当 前</w>
那 样</w>
em plo
n u
br an
索 赔</w>
s at
technolo gies</w>
生 命</w>
co ver</w>
第 六
ch ec
墨 西
经 过</w>
ne g
发 出</w>
5 %</w>
往 往</w>
探 讨</w>
go d</w>
第 一次</w>
industri al</w>
4 0
enti ties</w>
ch air</w>
tis h</w>
offic er</w>
el ess</w>
rais ed</w>
ru n</w>
采取 行动</w>
离 开</w>
col le
pl at
sen ten
re ached</w>
in ning</w>
辩 论</w>
ad ap
h op
volun tary</w>
func tion</w>
那 里</w>
in t
ev ent</w>
转 让</w>
l ess
be y
clo sed</w>
v ill
拒 绝</w>
sud an</w>
effici ency</w>
in nov
budge tary</w>
ma kes</w>
cor rec
占 领</w>
rel ation</w>
pl en
女 孩</w>
guid ance</w>
an g</w>
学 院</w>
min e</w>
家 庭
z ed</w>
实 质
s am
生 效</w>
ta d</w>
dic tion</w>
z one</w>
行 使</w>
t al</w>
r ound</w>
s qu
f ound
r un
大 约</w>
意 味
t a</w>
discus sions</w>
continu es</w>
m om
cre d
分 子</w>
资 助</w>
住 房</w>
tar get</w>
fin ally</w>
sp on
主 管</w>
详 细</w>
8 7</w>
主 义
当 时</w>
lo ss</w>
ess es</w>
re iter
海 洋</w>
cra ft</w>
理 论</w>
gro wing</w>
unc tad</w>
b ol
私 营
sy m
c ar</w>
w ise</w>
f e</w>
sub mit</w>
损 害</w>
fil m</w>
唯 一</w>
we b
pro cu
ver se</w>
公 正</w>
further more</w>
char ge</w>
ger many</w>
ec tion</w>
tur n</w>
hi stor
工 程
ac qui
修 改</w>
sho p</w>
相 同</w>
cl assi
cor ru
实质 性</w>
8 5</w>
全 球
g ame</w>
7 9</w>
manu fac
&apos; ve</w>
h im
两 性</w>
电 子</w>
澳大 利亚</w>
remain ed</w>
fem ale</w>
t i</w>
ta x
produc tive</w>
ethn ic</w>
ic k</w>
巨 大</w>
领导 人</w>
与 会
situ ations</w>
lan d
rec ently</w>
出 席</w>
ish ment</w>
lo t</w>
ac tual</w>
sec tors</w>
太 平
deli very</w>
决 策</w>
solu tion</w>
包 含</w>
ch es</w>
及 时</w>
所 作</w>
l er</w>
develop ments</w>
recei ve</w>
上 午</w>
足 够</w>
基 本
welcom ed</w>
disa ster</w>
加 勒
以 后</w>
意 大
han d
ab use</w>
ar my</w>
publ ished</w>
car ry</w>
n on
cer ti
mo d
用 户</w>
prac tical</w>
高级 别</w>
ed ings</w>
诉 讼</w>
专 家
捐 款</w>
复 杂</w>
竞 争</w>
un h
dis tin
视 为</w>
proce edings</w>
意味 着</w>
he art</w>
consen sus</w>
ta x</w>
ex ic
six th</w>
writ ten</w>
b ase</w>
indic ators</w>
实 际
independ ence</w>
即 使</w>
se ven
紧 急</w>
平 衡</w>
res ol
bey ond</w>
少 数</w>
initi al</w>
停 止</w>
al le
讲 习
力 于</w>
st ly</w>
发 言
致 力于</w>
b i</w>
si l
e .</w>
compens ation</w>
上 诉</w>
处 于</w>
开发 署</w>
m exic
s ting</w>
清 单</w>
bu re
su b</w>
合 理</w>
有 限</w>
意 识</w>
encoura ge</w>
刑 事
com ments</w>
预 防
捐 助</w>
tel l</w>
maj ority</w>
起 诉</w>
官 方</w>
it ors</w>
coun ter</w>
ear th</w>
reas on</w>
b s</w>
gener ally</w>
各 级</w>
4 00</w>
sen ior</w>
vi sit</w>
g g
a king</w>
recor d</w>
is tics</w>
截 至</w>
str ation</w>
y er</w>
posi tions</w>
to wn</w>
pr ices</w>
ca used</w>
re vie
discus sed</w>
名 单</w>
一 条</w>
接 触</w>
agricul tural</w>
8 3</w>
待 遇</w>
bec om
mar ri
随 后</w>
odi c</w>
9 5</w>
produc t</w>
conclu sion</w>
c ari
elim in
不 到</w>
lead ing</w>
以 外</w>
suppor ting</w>
ph ase</w>
劳 动
ta bility</w>
至 关
fe el</w>
te en
san c
appl ications</w>
ar ri
se ven</w>
mo re
为 什么</w>
m ass</w>
pro mis
procu rement</w>
usu ally</w>
f low
ac ade
f requ
觉 得</w>
collabor ation</w>
f ran
au dit</w>
讲习 班</w>
ste red</w>
produc ed</w>
自 然</w>
c .</w>
与会 者</w>
di vi
l ati
do ing</w>
deb ate</w>
压 力</w>
不 足</w>
vers ity</w>
peri odic</w>
can di
y ed</w>
paren ts</w>
thre at</w>
福 利</w>
er ship</w>
审 判</w>
inter net</w>
z a</w>
main tain</w>
transi tion</w>
har mon
至关 重要</w>
six ty</w>
moder n</w>
in surance</w>
cre dit</w>
identi fy</w>
ser ve</w>
ad vice</w>
b .</w>
ex port</w>
respon sibilities</w>
土 耳
be ij
c n
opini on</w>
第 三</w>
私营 部门</w>
最 新</w>
n ar
beg inning</w>
no thing</w>
reas ons</w>
am a</w>
一 下</w>
ad ju
适 应</w>
赞 赏</w>
8 1</w>
职 责</w>
it es</w>
in corpor
sch em
continu ing</w>
p ati
in ste
虐 待</w>
pow er
dru gs</w>
研究 所</w>
8 6</w>
k i
专家 组</w>
achiev ing</w>
isl am
be an</w>
ver i
财 务
父 母</w>
专 题</w>
国际 公约</w>
wa it</w>
onom y</w>
beij ing</w>
k y
评 论</w>
最 好</w>
ge or
bri tish</w>
for ced</w>
stake holders</w>
con struc
reco very</w>
pri orities</w>
ex tent</w>
少 年</w>
ac ted</w>
一般 性</w>
食 物</w>
w on</w>
8 2</w>
nor thern</w>
大 规模</w>
tre ati
cre ation</w>
addres sing</w>
descri bed</w>
6 0
7 .
determin ation</w>
more over</w>
exp en
di pl
专 门
comp ared</w>
occu pi
母 亲</w>
联合 王国</w>
试 验</w>
appoin t
俄罗 斯
立 场</w>
平 均</w>
establish ing</w>
9 8</w>
不 可
而 是</w>
unh cr</w>
oun ded</w>
事 实
遭 到</w>
so f
uti li
en ge</w>
con solid
ve re
今 年</w>
巴 西</w>
9 9</w>
8 8</w>
sty le</w>
dipl om
使 得</w>
计 算
surve y</w>
n ia</w>
状 态</w>
男 子</w>
lo g
m ac
appe al</w>
索 马里</w>
lead ership</w>
9 6</w>
ha bit
austr alia</w>
mic ro
欧 盟</w>
投 票</w>
ag ue</w>
太平 洋</w>
wh ite</w>
ear li
ei gh
inv ited</w>
cour ts</w>
occupi ed</w>
t old</w>
chem ical</w>
x ed</w>
ch e
i sts</w>
ch ing</w>
8 4</w>
6 00</w>
air craft</w>
令 人
印 度
难 民
ad ded</w>
各 地</w>
le y</w>
econom ies</w>
多 年</w>
adop t</w>
vulner able</w>
chall enge</w>
bor n</w>
requi res</w>
gen ce</w>
墨西 哥</w>
compu ter</w>
功 能</w>
do w
妇 女
mini ster
电 子
bra z
competi tion</w>
下 来</w>
p sy
ab or
监 狱</w>
c k</w>
lear ning</w>
h n</w>
西班 牙</w>
treati es</w>
de struction</w>
aliz e</w>
def ence</w>
follow s</w>
一 天</w>
li ves</w>
s un
play ed</w>
encoura ged</w>
方 向</w>
也 许</w>
y l
会议 室</w>
意大 利</w>
z er
相 互</w>
此 种</w>
原 子
维 亚</w>
9 2</w>
开 放</w>
北 京</w>
agricul ture</w>
t on
reli ef</w>
ar gu
商 品</w>
ir an</w>
令 人</w>
ec e</w>
效 果</w>
不 再</w>
lin ed</w>
sa w</w>
appro val</w>
speci alized</w>
un ep</w>
corru ption</w>
consist ent</w>
s ound</w>
数 目</w>
ul t</w>
cr iter
or e</w>
respec tive</w>
cle arly</w>
oc cur
recall ing</w>
dec re
任 择</w>
j am
9 7</w>
mo ved</w>
off er</w>
g as</w>
人权 委员会</w>
清 楚</w>
ne igh
re in
qu ali
se ek</w>
lo st</w>
年 龄</w>
afgh an
结 合</w>
star ted</w>
inste ad</w>
lati n</w>
main ly</w>
dec ade</w>
oper ating</w>
贷 款</w>
b and</w>
巴 基
se x</w>
主 权</w>
t our
e th</w>
打 算</w>
dam age</w>
他 人</w>
buil t</w>
afghan istan</w>
cont ent</w>
settle ment</w>
9 1</w>
模 型</w>
筹 备</w>
sk ills</w>
集 中</w>
国 政府</w>
9 3</w>
enter prises</w>
地 雷</w>
introduc tion</w>
asi an</w>
appro xim
sou thern</w>
acc es
op tional</w>
重 建</w>
saf e</w>
op ening</w>
侵 害</w>
tr ue</w>
制 裁</w>
su ff
货 物</w>
统 计
兴 趣</w>
汽 车</w>
avo id</w>
consult ation</w>
weap on</w>
con cept</w>
comple x</w>
cari b
fo rest</w>
ga ve</w>
ati vely</w>
ai l</w>
laun ched</w>
位 于</w>
g ain
some times</w>
carib bean</w>
re ach</w>
z ation</w>
eng ine
elec ted</w>
sugge sted</w>
th ous
emplo ye
cont act</w>
各 自</w>
未 能</w>
conclu ded</w>
ea stern</w>
typ es</w>
plen ary</w>
pres sure</w>
impro vement</w>
ar ity</w>
2 ,
类 型</w>
筹 资</w>
数 额</w>
h a</w>
保 险</w>
在 于</w>
卢 旺
ec h</w>
detail ed</w>
所 涉</w>
fi ght</w>
m ess
e p
as y</w>
terror ist</w>
g ation</w>
electr onic</w>
行 业</w>
con ferences</w>
expendit ure</w>
rac ial</w>
埃 及</w>
种 族</w>
progra m</w>
c ally</w>
9 4</w>
assi gn
外 地</w>
后 果</w>
c c
ri es</w>
全 体
welcom es</w>
er ad
effici ent</w>
appreci ation</w>
sup ple
当 然</w>
adv oc
岛 屿</w>
s r
an tly</w>
8 9</w>
am b
报 道</w>
攻 击</w>
卢旺 达</w>
follow ed</w>
腐 败</w>
土耳 其</w>
k er</w>
研 讨
f all</w>
救 济</w>
暴 力
mo bil
pay ment</w>
bil ateral</w>
en abl
re pe
ke t</w>
实际 上</w>
syst em
fron t</w>
des er
o ce
islam ic</w>
满 意</w>
建 筑</w>
日 益</w>
拉 丁
deploy ment</w>
ph one</w>
研讨 会</w>
道 路</w>
各 个</w>
n e</w>
con go</w>
表 决</w>
袭 击</w>
调 查
spe ak
ol er
s mo
fri ends</w>
in st
ra ise</w>
pro por
201 6</w>
巴基 斯坦</w>
he ard</w>
regi stration</w>
at ures</w>
ge ograph
regim e</w>
是 因为</w>
ord ers</w>
武装 冲突</w>
销 售</w>
s in
民主 共和国</w>
ho st</w>
mexic o</w>
tem porary</w>
is lands</w>
C N
技 能</w>
du ty</w>
变 得</w>
大 家</w>
创 新</w>
工作 队</w>
增 进</w>
confi dence</w>
gre at
作 品</w>
contro l
recor ds</w>
al ism</w>
n or</w>
foc used</w>
s wit
musi c</w>
collec tion</w>
信 托</w>
f all
allow ed</w>
sh aring</w>
ei ght</w>
hou se
oblig ation</w>
jud ges</w>
rele ased</w>
him self</w>
speci fic
电 影</w>
资 格</w>
ne ws</w>
将 会</w>
viol ation</w>
延 长</w>
地 球</w>
measu re</w>
公 布</w>
se as
加勒 比</w>
so vere
享 受</w>
俄罗斯 联邦</w>
总 是</w>
av ing</w>
ol y
sho wn</w>
r ou
dis placed</w>
as ting</w>
pres ence</w>
科 威
stre et</w>
速 度</w>
预 测</w>
制 造</w>
en try</w>
游 戏</w>
minim um</w>
ent ation</w>
动 物</w>
high ligh
科 索
过 渡</w>
eg yp
pur ch
供 应</w>
u .
end or
il legal</w>
私 人</w>
a st
form al</w>
南 非</w>
c ash</w>
事实 上</w>
ver si
is on</w>
ma xim
re ha
p. m.</w>
lic it</w>
发 布</w>
治 理</w>
to ols</w>
科索 沃</w>
juris diction</w>
返 回</w>
conven tions</w>
partner ships</w>
applic able</w>
更 新</w>
achie vement</w>
ide a</w>
langu ages</w>
多样 性</w>
siz e</w>
mp ;</w>
&a mp;</w>
态 度</w>
teen th</w>
位 置</w>
8 .
利 于</w>
医 生</w>
所 载</w>
pris on</w>
信 任</w>
放 在</w>
途 径</w>
cep tion</w>
u k
neg ative</w>
198 9</w>
提 及</w>
9 .
eng ag
resul ting</w>
r ise</w>
plan ned</w>
reha bil
loo king</w>
比 赛</w>
accoun tability</w>
reduc ed</w>
under stand</w>
k en</w>
父 亲</w>
loc ated</w>
be ha
cre te</w>
和 平
h ur
plac es</w>
后 来</w>
规 范</w>
an cy</w>
accoun ts</w>
简 单</w>
cu ba</w>
syri an</w>
ci ties</w>
found ation</w>
marri age</w>
per spec
di d
defin ed</w>
ban ks</w>
捐 助
be au
bure au</w>
y e</w>
本 文</w>
8 00</w>
人 力
正 常</w>
is ing</w>
ex tr
一 家</w>
修 正</w>
appoin ted</w>
全体 会议</w>
试 图</w>
获 取</w>
democr acy</w>
启 动</w>
中 央</w>
便 利</w>
v ac
instru ment</w>
维 也
approxim ately</w>
对 此</w>
sen si
维也 纳</w>
il licit</w>
refl ected</w>
enter prise</w>
攸 关</w>
表 达</w>
obser vations</w>
之 中</w>
conclu sions</w>
chan ged</w>
repres ented</w>
dom in
刚 果
伊斯 兰
n ation</w>
投 入</w>
st o
re m
au tom
mon itor</w>
sho ws</w>
v o</w>
每 天</w>
出 版</w>
w a</w>
mem ber
之 下</w>
助 理</w>
inten ded</w>
rais ing</w>
determin ed</w>
v i</w>
mun ic
as k</w>
use ful</w>
b on
怎 么</w>
污 染</w>
来 文</w>
候 选
依 然</w>
直 到</w>
ro l
transpa ren
sen se</w>
高 兴</w>
min u
tw are</w>
lit er
仅 仅</w>
n in
clo sely</w>
stre am
munic ip
pri me</w>
看 法</w>
sub mission</w>
ar ab
encoura ges</w>
inde ed</w>
ari a</w>
sid es</w>
e .
ne y</w>
sanc tions</w>
拉丁 美洲</w>
c li
用 途</w>
sy n
ch ur
altern ative</w>
immedi ately</w>
军 队</w>
wa ste</w>
lar gest</w>
sh el
be h
wel come</w>
pr e</w>
t ex
fiel ds</w>
ex tra
satis fac
a e
st op</w>
is ed</w>
reas on
为 止</w>
转 移</w>
m us
conflic ts</w>
n om
tur ing</w>
殖 民
enhan ced</w>
劳 动</w>
b ac
资 本</w>
c tion</w>
流 动</w>
de tec
申 诉</w>
appro aches</w>
sh e
a x
tion ing</w>
beha vi
sub jec
pat ter
es day</w>
it al
head s</w>
犯 罪
announ ced</w>
whe re
b our
medi um</w>
de pu
附 近</w>
di g
we b</w>
ca uses</w>
分 发</w>
科威 特</w>
en na</w>
cen ter</w>
compon ent</w>
o wing</w>
b in
ren ce</w>
adv ance</w>
constitu tional</w>
de ep</w>
观 察</w>
sof tware</w>
coun ty</w>
0 s</w>
dat ab
积 极
high est</w>
相 当</w>
exc ell
transparen cy</w>
invol ving</w>
with dra
me an</w>
法 治</w>
关 键
accoun ting</w>
criter ia</w>
只 要</w>
c ell
初 步</w>
num er
mar ine</w>
per cent</w>
出 版
campai gn</w>
bl ack</w>
op ened</w>
wi fe</w>
相 对</w>
unf pa</w>
数据 库</w>
w ri
no ting</w>
ri ver</w>
外 部</w>
cl ass
acti vely</w>
账 户</w>
斯 拉
错 误</w>
statis tical</w>
有 时</w>
描 述</w>
角 色</w>
f air</w>
form ation</w>
bro ad</w>
f f</w>
pro b
法 案</w>
斯 坦
ti vity</w>
教 育
正 如</w>
impl ications</w>
k en
recogn ition</w>
pa kistan</w>
检察 官</w>
consequ ences</w>
我 要</w>
ic i
m r</w>
earli er</w>
al li
ic ity</w>
ger man</w>
特 点</w>
me dic
enti re</w>
gre en</w>
lor d</w>
ti tu
上 升</w>
国 民</w>
at tr
ta il</w>
第 七
全 世界</w>
tim ate</w>
increas ingly</w>
供 资</w>
pos e</w>
C .
一 方面</w>
判 决</w>
prin cip
wor ked</w>
只 能</w>
fail ure</w>
parlia ment</w>
ver ing</w>
能 性</w>
mini sters</w>
密 切
beh ind</w>
vi de
b att
心 理</w>
ex ist
is es</w>
po p
ab s
explo itation</w>
ho od</w>
sur vi
struc tures</w>
这 么</w>
ail y</w>
pro v
首 次</w>
depart ments</w>
un ity</w>
f are</w>
mor ning</w>
cu t</w>
work shop</w>
主 席
migr ants</w>
劳 工</w>
vi enna</w>
gam es</w>
ma y
member ship</w>
an sw
the ory</w>
exten ded</w>
医 院</w>
accep ted</w>
gui de</w>
种族 歧视</w>
plat form</w>
plac ement</w>
提 供
sh ops</w>
ha z
att acks</w>
con crete</w>
tri c</w>
旅 行</w>
ris ks</w>
go s</w>
mul ti</w>
r wan
comm od
二 十
regul ation</w>
方 针</w>
卫 星</w>
colle ge</w>
pro duce</w>
提 请</w>
pol lu
d i</w>
自 由
mu tual</w>
遗 憾</w>
cal cul
伊 朗</w>
difficul ties</w>
通 报</w>
sit es</w>
ali an</w>
o ther
braz il</w>
stres sed</w>
刚果 民主共和国</w>
knowle d
指 南</w>
over sight</w>
国 籍</w>
dis ci
di men
e asi
投 资
do or</w>
南 部</w>
供 应
h ot
bi tion</w>
展 开</w>
瑞 士</w>
determin e</w>
候选 人</w>
t ou
ri t</w>
techn i
bl oc
男 性</w>
称 为</w>
居 住</w>
an ia</w>
协调 员</w>
obser ver</w>
deci des</w>
不 利</w>
起 草</w>
d aily</w>
sha red</w>
基 地</w>
le gi
al one</w>
p ain
dra f
s co
执行 局</w>
high ly</w>
de g
respon d</w>
消 费
经 营</w>
客 户</w>
查 明</w>
ili ation</w>
a i</w>
o h
海 地</w>
pun ishment</w>
dise ase</w>
当 事
doll ars</w>
fi gh
h us
198 8</w>
fo ot
显 然</w>
fri end</w>
don e
trans l
组 成
defin ition</w>
rele ase</w>
回 答</w>
e ts</w>
组成 部分</w>
期 限</w>
7 00</w>
than k</w>
最 低</w>
ar ch</w>
额 外</w>
coun ter
prepar atory</w>
美 國</w>
co he
direc tion</w>
k illed</w>
oly mp
s le
con ser
process ing</w>
n ic
可 能性</w>
a vi
appe ar
tim ely</w>
bl es</w>
separ ate</w>
po st
s cen
influ ence</w>
st ations</w>
人力 资源</w>
e u</w>
mor t
us ers</w>
enhan cing</w>
201 7</w>
一 届</w>
committe es</w>
st a</w>
web site</w>
adju st
con gress</w>
refl ect</w>
ur ges</w>
we al
cer tain
第二 次</w>
it i</w>
中 期</w>
哥 伦
valu es</w>
expres s</w>
seven th</w>
相 互
in done
采取 措施</w>
软 件</w>
rehabil itation</w>
fi g
子 女</w>
em ed</w>
取 消</w>
deg ree</w>
c au
remain ing</w>
organiz ational</w>
au t
海 洋
el i
reduc ing</w>
secon d
百 分
an ese</w>
工 资</w>
核 查</w>
gir l</w>
利 比
per pe
att ack</w>
食 品</w>
叙 利亚</w>
s cre
ac knowled
制 作</w>
第三 十
测 试</w>
安 保</w>
残 疾</w>
w o
per cent
abs ence</w>
石 油</w>
爱 尔
re conc
ar re
pos sibility</w>
r o</w>
col on
appoint ment</w>
b ill</w>
主 持</w>
loc ation</w>
完 整</w>
stoc k</w>
au di
se tting</w>
坚 持</w>
de e
&apos; d</w>
sp an
第五 十
利比 里亚</w>
nation ally</w>
e asy</w>
immedi ate</w>
m ad
pres er
fel t</w>
指 示</w>
总 体</w>
经 历</w>
外 交</w>
pen al
正 确</w>
保 护
m ou
con centr
现 代</w>
leban on</w>
dr in
bo s
工 发</w>
ou ter</w>
群 岛</w>
qu anti
差 异</w>
ti an</w>
所 有人</w>
st ood</w>
spi rit</w>
相 应</w>
li br
cl ari
尼 日
du m</w>
废 物</w>
enc ed</w>
高 度</w>
主席 团</w>
总 额</w>
平 台</w>
al ist</w>
e ding</w>
solu tions</w>
逮 捕</w>
透 明
进 步</w>
军 事
多 个</w>
categ ory</w>
ur gent</w>
更 为</w>
tele vision</w>
阿 根
capac ities</w>
u. s.</w>
效 力</w>
f as
l y
de stro
用 来</w>
ay ing</w>
sum ed</w>
bri ef
故 事</w>
elec toral</w>
v a</w>
e yes</w>
感 觉</w>
g in
主 流</w>
sub regional</w>
南 斯拉
分 享</w>
加 拉
metho d
jap anese</w>
多 少</w>
prepar e</w>
议 事
li sted</w>
jo hn</w>
hol ding</w>
wee ks</w>
docu mentation</w>
协 作</w>
附 属</w>
p ped</w>
剥 夺</w>
ff ic</w>
h r
disci pl
第 一个</w>
flo or</w>
did n</w>
emer ging</w>
a th
don ors</w>
思 想</w>
第 四</w>
tra ffic</w>
subsi di
fri end
成 就</w>
qu ite</w>
gi ving</w>
tu red</w>
区 域
合 众
g es
ac cur
f low</w>
教 师</w>
b ad</w>
qu ick
最 初</w>
de gra
双 边</w>
I n
共同 体</w>
pu ts</w>
exist ence</w>
every one</w>
男 女</w>
公 里</w>
condi tion</w>
有 所</w>
边 界</w>
酌 情</w>
boo ks</w>
un id
estim ates</w>
radi o</w>
consum ption</w>
con tains</w>
re pl
达 尔
represent ation</w>
伤 害</w>
fu el</w>
particip ated</w>
法 规</w>
o re
dow n
strength ened</w>
spe aking</w>
美 利
w .
国家 一级</w>
mo di
refuge e</w>
爱尔 兰</w>
规 划署</w>
19 0
n ig
订 正</w>
哪 些</w>
面 前</w>
recor ded</w>
购 买</w>
ad es</w>
fig ure</w>
loo ked</w>
战 略
身 体</w>
wri ting</w>
特 征</w>
discus s</w>
层 面</w>
win do
进 口</w>
差 距</w>
强 迫</w>
争 取</w>
li b
竞 争
min es</w>
ec o
克 斯坦</w>
r ich</w>
t ely</w>
p age</w>
并 非</w>
财 政
全球 化</w>
second ary</w>
ac tually</w>
裁 决</w>
al ed</w>
cl in
ph ot
f ish</w>
干 预</w>
expres sion</w>
198 0</w>
f ru
er b
ag u
aw are</w>
de man
go sla
时 代</w>
美利 坚
国 人</w>
op tions</w>
美利坚 合众
集 体</w>
lear n</w>
遇 到</w>
civil ians</w>
m ari
percent age</w>
化学 品</w>
任 期</w>
g a</w>
yu gosla
un less</w>
快 速</w>
eng aged</w>
psy ch
种族 主义</w>
相 比</w>
contribu ting</w>
担 心</w>
现 实</w>
ach ing</w>
pro vin
sat ell
um s</w>
燃 料</w>
1 20</w>
道 德</w>
n gos</w>
议事 规则</w>
事务 部</w>
w an</w>
j er
ti n</w>
gr at
accord ingly</w>
几 内
invol vement</w>
法 令</w>
fi l</w>
货 币</w>
暴力 行为</w>
w all</w>
si vely</w>
得 以</w>
prov ince</w>
有 利于</w>
ap s</w>
ow ned</w>
fle xi
tin a</w>
民 众</w>
som alia</w>
guarante e</w>
命 令</w>
肯 定</w>
orig in</w>
i .
合 法</w>
赞 扬</w>
ital y</w>
inspec tion</w>
1 50</w>
ju dge</w>
妇女 地位</w>
3 ,
wh om</w>
分 类</w>
语 文</w>
中 东</w>
. org</w>
recru it
挪 威</w>
sol di
科 技</w>
秘 书</w>
gr ounds</w>
透明 度</w>
d in
人民 共和国</w>
气 候</w>
specific ally</w>
egyp t</w>
en tered</w>
ti se</w>
en se</w>
-- --</w>
证 书</w>
resul ted</w>
ho c</w>
s cri
spe ak</w>
pre dic
sur face</w>
合 并</w>
lear ned</w>
depu ty</w>
li qu
决 心</w>
gu ine
特 设</w>
因 而</w>
. 9</w>
维 和</w>
根 本</w>
ish es</w>
ven ue</w>
车 辆</w>
iz es</w>
se ems</w>
儿 子</w>
r ying</w>
0 %</w>
载 有</w>
net works</w>
分 钟</w>
p ack
第四 十
克 兰</w>
revie wed</w>
难民 署</w>
cor respon
se g
失 去</w>
nin th</w>
去 年</w>
sal es</w>
tion ally</w>
cre ating</w>
o ffered</w>
pow ers</w>
teach ing</w>
葡 萄
i re</w>
解决 办法</w>
unid o</w>
ic ate</w>
occup ation</w>
author ized</w>
num bers</w>
ac compl
n ai
富 尔</w>
教 授</w>
雇 员</w>
retur ned</w>
port ation</w>
pres sion</w>
contr acts</w>
br it
per si
C O
ma il</w>
v oc
记 者</w>
organ s</w>
aff ect</w>
eigh th</w>
g .</w>
del y</w>
确 实</w>
美利坚合众 国</w>
印度 尼
议 员</w>
mo del
f ast</w>
respec tively</w>
达尔 富尔</w>
颁 布</w>
regi stered</w>
常 设</w>
lon don</w>
ex cept</w>
tr ying</w>
compon ents</w>
f is
acade m
ne arly</w>
现 行</w>
作 出
minister ial</w>
v .</w>
名 字</w>
comb ating</w>
for ty</w>
assess ments</w>
seas on</w>
fac tor</w>
detail s</w>
前 往</w>
obser ved</w>
for tun
瑞 典</w>
常 常</w>
lim it</w>
fail ed</w>
hap pen
don or</w>
di an</w>
sim ple</w>
付 款</w>
exam ination</w>
tem per
se l</w>
cir cul
派 遣</w>
te ams</w>
四 个</w>
summ er</w>
heav y</w>
wi dely</w>
现 金</w>
ar gen
cham ber</w>
充 分
charac ter</w>
bir th</w>
work shops</w>
建 造</w>
以 期</w>
happ y</w>
wor ld
执 法</w>
g an</w>
rel and</w>
cru cial</w>
女 童</w>
I I</w>
原子 能</w>
出 生</w>
曾 经</w>
w on
recruit ment</w>
dy nam
expl ain
cust oms</w>
amb ass
min ing</w>
容 忍</w>
re t</w>
ser ved</w>
collec tive</w>
consider ing</w>
appe ar</w>
c er</w>
潜 在</w>
fic ations</w>
和 解</w>
工程 处</w>
st ress</w>
报 表</w>
han ds</w>
团 结</w>
cy cle</w>
t y
意 思</w>
appe ared</w>
替 代</w>
im mun
自 身</w>
早 期</w>
employe es</w>
面 对</w>
对 象</w>
北 部</w>
青 少年</w>
an ds</w>
例 子</w>
safe gu
span ish</w>
s l
c d</w>
单 独</w>
exper tise</w>
除 非</w>
预防 犯罪</w>
大 使</w>
运 行</w>
st ay</w>
免 费</w>
fac ed</w>
阿根 廷</w>
hol ds</w>
利 亚
oler ance</w>
自 治</w>
targe ts</w>
wan ted</w>
under take</w>
j ob
处 罚</w>
rap id</w>
enjo y</w>
inclu sion</w>
any thing</w>
独 立
ac ci
粮 食
定 性</w>
to m</w>
体 现</w>
cour ses</w>
li st
尽 可能</w>
失 踪</w>
secur e</w>
年 底</w>
不 得
0 ,000</w>
ur ged</w>
想 要</w>
ph en
su pre
细 胞</w>
有 力</w>
担 保</w>
acc el
min orities</w>
par k</w>
紧 急
j an</w>
ma r</w>
严 格</w>
m ot
lo s
intere sted</w>
obser vers</w>
institu tion</w>
to ol</w>
航 空</w>
几 年</w>
具 体
津 贴</w>
back ground</w>
ag ree</w>
en ter</w>
阻 碍</w>
剥 削</w>
vehic les</w>
deli ber
jour n
nu tri
norm al</w>
tal k</w>
i reland</w>
tur key</w>
Add .1</w>
subsequ ent</w>
逐 步</w>
bl ood</w>
s a</w>
装 置</w>
荷 兰</w>
证 实</w>
减 轻</w>
开 支</w>
世界 银行</w>
他 們</w>
同 一</w>
every thing</w>
ti l
ma ster</w>
即 将</w>
el abor
年 来</w>
波 斯
nam es</w>
recogn izing</w>
死 刑</w>
un g</w>
religi on</w>
gu n</w>
b om
on line</w>
st ac
0 1</w>
公 务
guine a</w>
密 切</w>
mo ving</w>
previ ously</w>
迪 瓦</w>
minu tes</w>
ko so
coordin ated</w>
man dates</w>
非洲 联盟</w>
se arch</w>
pre ce
deal ing</w>
in side</w>
re ve
spe ed</w>
al i</w>
perspec tive</w>
1 1
实 践</w>
共 识</w>
ww w.
col d</w>
pl ant</w>
employ ed</w>
科 特
us er</w>
英 文</w>
streng th</w>
other wise</w>
advan ced</w>
bo x</w>
in ven
ad s</w>
gener ation</w>
仲 裁</w>
speci es</w>
em is
investig ations</w>
schem e</w>
d .</w>
m ur
accep t</w>
pop ular</w>
防 治</w>
emphasiz ed</w>
or ation</w>
科特 迪瓦</w>
适 合</w>
切 实</w>
别 人</w>
d p</w>
ali sts</w>
寻 找</w>
add .1</w>
signific antly</w>
拟 定</w>
tin e</w>
补 救</w>
re forms</w>
it h</w>
b on</w>
共 有</w>
advant age</w>
建 筑
stor e</w>
inst all
cap e</w>
indic ate</w>
contribu ted</w>
sp ain</w>
机 场</w>
beg in</w>
empha sis</w>
艺 术</w>
一 旦</w>
n ine</w>
音 乐</w>
阁 下</w>
fin e</w>
三 年</w>
赋 予</w>
thre ats</w>
im posed</w>
场 所</w>
in c
大 楼</w>
at tribu
uk ra
mi d</w>
assi stant</w>
植 物</w>
ro r</w>
很 快</w>
prom ot
mom ent</w>
ze al
mar ks</w>
消 息</w>
男 人</w>
der i
stra in
ati cally</w>
af ter
ch r</w>
sp ir
人 力</w>
dec la
代 理</w>
y ers</w>
吸 引</w>
el ement</w>
quick ly</w>
动 员</w>
olu tion</w>
chur ch</w>
palestin e</w>
datab ase</w>
fre ed
teach ers</w>
shor t
ad ver
次 级</w>
诸 如</w>
普 通</w>
off ences</w>
透 明</w>
w ash
sel ected</w>
rus sia</w>
fin dings</w>
ex ist</w>
9 00</w>
pass ed</w>
g ri
新 西
si mul
em bar
后 勤</w>
di a</w>
事 业</w>
强 烈</w>
s an</w>
u t
回 到</w>
bre ak</w>
man i
vie t</w>
weal th</w>
koso vo</w>
可 是</w>
弹 药</w>
s en</w>
candi dates</w>
for d</w>
sou ght</w>
indone sia</w>
妻 子</w>
ar ts</w>
印度尼 西亚</w>
诉 人</w>
thre at
乌 克兰</w>
控 制
elimin ate</w>
个 月</w>
shi p
制 止</w>
job s</w>
numer ous</w>
pre gn
dise ases</w>
some one</w>
inter im</w>
geor gi
freed oms</w>
bo y</w>
角 度</w>
女 人</w>
或 是</w>
星 期</w>
tro ops</w>
s lo
me t
rwan da</w>
identi fication</w>
interpre tation</w>
总 理</w>
n it
in tel
he ar</w>
争 端</w>
m ol
ass ess</w>
supre me</w>
释 放</w>
perpe tr
推 进</w>
publ ic
198 6</w>
永 远</w>
particip ating</w>
su n</w>
gran ted</w>
惩 罚</w>
di versity</w>
vide o</w>
integr ity</w>
require ment</w>
ob tained</w>
参 考</w>
放 弃</w>
we d
推 广</w>
婚 姻</w>
美 国
上 文</w>
si gn</w>
r ace</w>
respon ses</w>
ra il
无 论</w>
吁 请</w>
出版 物</w>
监 管</w>
ex ce
prosecu tor</w>
ku wait</w>
vill age</w>
l eng
subsequ ently</w>
am e
tas ks</w>
感 染</w>
2 12</w>
赞 同</w>
tren ds</w>
a h
sim ply</w>
zeal and</w>
re ti
波斯 尼亚</w>
pro te
form ing</w>
gi ble</w>
mi ti
tic ally</w>
案 文</w>
ol der</w>
筹 措</w>
部 长
sh ar
o k
ac king</w>
settle ments</w>
帝 汶</w>
ro man
et c</w>
三 届</w>
消 费</w>
. 6</w>
diplom atic</w>
nam ed</w>
str ong
fun ded</w>
cooper ate</w>
suppor ts</w>
wel fare</w>
决 于</w>
am bi
取 决于</w>
ob stac
续 性</w>
princip al</w>
intel li
成 绩</w>
10 5</w>
join ed</w>
突 出</w>
amend ment</w>
exp ec
合作 伙伴</w>
con ver
constitu te</w>
engine ering</w>
rati fication</w>
行 星</w>
混 合</w>
危 害</w>
comple tion</w>
qu es</w>
交 通</w>
read ing</w>
inter n
y our
促 使</w>
engag ement</w>
lin ked</w>
人 口
实 验</w>
ob ject</w>
真 的</w>
可 靠</w>
op h
in ju
大 型</w>
fi gu
pro per</w>
ta i
con vic
g old</w>
谴 责</w>
装 备</w>
排 放</w>
公务 员</w>
c ast</w>
recogn ize</w>
认 可</w>
sho wed</w>
以 往</w>
chan ging</w>
categ ories</w>
协 商
bi ological</w>
东 帝汶</w>
p h</w>
n esses</w>
公 民
less ons</w>
ww w</w>
popul ations</w>
w ai
变 成</w>
inter nationally</w>
家庭 暴力</w>
re jec
min ority</w>
spo ke</w>
identi ty</w>
sug ges
o h</w>
equ i
操 作</w>
strong ly</w>
sp here</w>
储 存</w>
业 绩</w>
fac ing</w>
斯 洛
oh chr</w>
st able</w>
fir m</w>
c a</w>
刑 法</w>
s av
布 隆
摘 要</w>
in stance</w>
日 起</w>
brit ain</w>
五 年</w>
thir ty</w>
管 辖</w>
subsidi ary</w>
al a</w>
人道 主义
主 管
dou b
人道主义 法</w>
them e</w>
取 代</w>
th ly</w>
b ing</w>
expan sion</w>
国 务
substan tial</w>
系 统
en em
buil dings</w>
confir med</w>
事 故</w>
fe el
ad d</w>
hon our</w>
consult ative</w>
ge ment</w>
comb ined</w>
sub programme</w>
world wide</w>
prosecu tion</w>
周 期</w>
电 视</w>
hosp ital</w>
h our</w>
peace building</w>
we ight</w>
回 应</w>
tur k
out standing</w>
see king</w>
ge tting</w>
consider able</w>
10 9</w>
联 网</w>
信 仰</w>
gro ss</w>
un able</w>
埃 塞
更 大</w>
eng age</w>
塞 拉
ar ily</w>
小 型</w>
ne u
相 反</w>
far m
类 别</w>
t ;</w>
尼 斯</w>
b ound
claim ed</w>
er ra</w>
h in
菲 律
声 称</w>
complain ts</w>
ti ci
巴 黎</w>
ordin ary</w>
效 益</w>
ali gn
o g
阐 述</w>
议 题</w>
w ood</w>
ha ps</w>
ne p
in fl
一 场</w>
tur ned</w>
ne ther
開 始</w>
lin k</w>
争 议</w>
文 章</w>
i .</w>
ob tain</w>
m uni
le ague</w>
死 亡
一 套</w>
vis its</w>
tour ism</w>
believ ed</w>
患 者</w>
a ward</w>
4 ,
值 得</w>
罗 马</w>
volun te
experi ences</w>
cho ice</w>
differen ces</w>
o x
reconc iliation</w>
los ses</w>
科 学
表 示
col om
accel er
环境 署</w>
migr ant</w>
e an</w>
申 请
图 书
利 昂</w>
埃塞 俄
i op
e ing</w>
maxim um</w>
lo ad</w>
有 着</w>
character istics</w>
调 动</w>
显 著</w>
bu y</w>
物 品</w>
摩 洛
per haps</w>
gra de</w>
pres entation</w>
s ports</w>
特 性</w>
节 目</w>
a p</w>
两 种</w>
fac ility</w>
s aying</w>
technolo gical</w>
ic a</w>
使 用
bri dge</w>
药 品</w>
ra ble</w>
multi ple</w>
融 资</w>
不得 不</w>
mar ily</w>
修 正
k y</w>
斗 争</w>
highligh ted</w>
最 高
任 何
zer land</w>
少 数
exam ples</w>
nether lands</w>
ide as</w>
appe als</w>
小 岛屿</w>
ing ing</w>
main tained</w>
中 有</w>
st ar</w>
反 恐</w>
职 务</w>
deci de</w>
territor ial</w>
高 专</w>
还 要</w>
dispu te</w>
新西 兰</w>
s ale</w>
tri ed</w>
计 数</w>
克 罗
becom ing</w>
年 轻</w>
a c</w>
v ital</w>
habit at</w>
塞拉 利昂</w>
them atic</w>
生 态
fe atures</w>
alleg ed</w>
整 体</w>
par is</w>
we a
哥伦 比亚</w>
swit zerland</w>
ing ton</w>
preven ting</w>
speci fied</w>
restric tions</w>
con sent</w>
ma p</w>
版 本</w>
expendit ures</w>
on ia</w>
p on
glob alization</w>
足 球</w>
compe tent</w>
依 赖</w>
exten d</w>
证 人</w>
invest ments</w>
suppl ies</w>
投资 者</w>
修正 案</w>
dis ability</w>
阻 止</w>
ha i</w>
se as</w>
pay ments</w>
申 诉人</w>
很 少</w>
跨 国</w>
巩 固</w>
rel atively</w>
regul atory</w>
avail ability</w>
vo ice</w>
tra in</w>
未 经</w>
tr ack</w>
与 此
怎 样</w>
尼 亚
pri marily</w>
r s</w>
该 项</w>
we ak
旅 游</w>
con taining</w>
im age</w>
年 度
198 7</w>
reason able</w>
con ten
out comes</w>
ell ing</w>
stoc k
fu r</w>
tra ding</w>
loc k</w>
an e</w>
oc ca
liber ia</w>
per f
dou ble</w>
图书 馆</w>
st an</w>
员 工</w>
comm an
z h
资 源
ser i
建 设
198 5</w>
妨 碍</w>
protec ted</w>
tren d</w>
w in</w>
occur red</w>
certi fic
f la
促 请</w>
de fic
alleg ations</w>
t ance</w>
ic als</w>
car rying</w>
士 兵</w>
mit ting</w>
nam ely</w>
speak ers</w>
eth iop
教 科
consi ders</w>
马 来
organ is
esti on
si erra</w>
im pe
提 名</w>
ess or</w>
nation ality</w>
cle an</w>
answ er</w>
qu ir
mach ine</w>
教 训</w>
漠 化</w>
ro se</w>
秩 序</w>
end ers</w>
想 法</w>
p ra
mem or
stat ute</w>
erad ication</w>
care er</w>
del ay</w>
s .
ke pt</w>
es h</w>
dra w</w>
自 我</w>
政 党</w>
ac her</w>
公 路</w>
au stri
痛 苦</w>
um p</w>
tradi tion</w>
fi xed</w>
thous ands</w>
design ated</w>
atten ded</w>
联合 会</w>
trans portation</w>
示 范</w>
decla red</w>
y al</w>
qu estion
融 入</w>
hel ped</w>
appe ars</w>
f ish
正 是</w>
塞 浦
塞浦 路
已 有</w>
ra in</w>
in form</w>
声 音</w>
re productive</w>
flow s</w>
0 5</w>
南斯拉 夫</w>
rac ism</w>
商 业
不 久</w>
vari ety</w>
pat ri
家 人</w>
chem icals</w>
斯 特</w>
可 行</w>
au gh
负 担</w>
专门 机构</w>
top ic</w>
amoun ts</w>
自然 资源</w>
恶 化</w>
uni que</w>
coordin ator</w>
beau ti
th ro
men ted</w>
19 67</w>
逐 渐</w>
la u
chair person</w>
难 以</w>
st one</w>
en tr
b at
确 立</w>
武装 部队</w>
l i</w>
摩洛 哥</w>
期 望</w>
预 算
涵 盖</w>
inclu sive</w>
sovere ign
pol y
交 换</w>
lat ter</w>
审 理</w>
libr ary</w>
du ties</w>
bran ch</w>
m ale</w>
s ors</w>
款 项</w>
c amer
管理 局</w>
伦 敦</w>
veri fication</w>
sp ent</w>
并 未</w>
mean ing</w>
十 二
ambass ador</w>
z ing</w>
di ag
ag ing</w>
层 空间</w>
外 层空间</w>
wr ite</w>
消费 者</w>
be aring</w>
阿尔 及
意 愿</w>
ae a</w>
ne ver
手 册</w>
一 道</w>
电 视
qu e
g reg
a o</w>
differen ce</w>
b ile</w>
1 st</w>
nor way</w>
持 久</w>
hy dro
3 %</w>
amend ments</w>
2 %</w>
emis sions</w>
塞 拜
比 如</w>
victi m</w>
加 沙</w>
管 辖
corpor ate</w>
b es</w>
mar ried</w>
soldi ers</w>
希 腊</w>
oun ding</w>
会 计
地 利</w>
7 %</w>
func tioning</w>
figu res</w>
市 场
lat est</w>
埃塞俄 比亚</w>
b ig
tru th</w>
jo in</w>
死亡 率</w>
sovereign ty</w>
aliz ing</w>
体 化</w>
ner ship</w>
估 计数</w>
vehic le</w>
su me</w>
bus in
har d
satell ite</w>
5 ,
gi ves</w>
列 出</w>
全 体</w>
计算 机</w>
丈 夫</w>
创 建</w>
ill u
argen tina</w>
never th
nor ms</w>
om en
阿 塞拜
运 用</w>
neverth eless</w>
in struc
phil ip
分 布</w>
知 识
ap p
conclu ding</w>
s er</w>
指 数</w>
生 物
滥 用</w>
具 备</w>
ro c
概 述</w>
sp read</w>
dre w</w>
ld n</w>
e ds</w>
终 止</w>
do es
pati ents</w>
ti tle</w>
ow nership</w>
an ni
sem ination</w>
i um</w>
attemp t</w>
发 起</w>
无 核武器</w>
族 裔</w>
C C
克 斯</w>
g ate</w>
生 殖</w>
stu dent</w>
ne i
run ning</w>
recei ving</w>
q i</w>
高 等
appear ance</w>
co verage</w>
期 待</w>
菲律 宾</w>
senten ce</w>
re medi
布隆 迪</w>
mar ked</w>
i aea</w>
人 物</w>
推 出</w>
m c
产 权</w>
lar ger</w>
deli vered</w>
m el
le aving</w>
加 快</w>
it a</w>
re d
自 动</w>
一 体化</w>
198 2</w>
信 贷</w>
poin ted</w>
脆 弱</w>
decre ase</w>
se em</w>
新 加
劳动 力</w>
fel l</w>
exten sion</w>
男 孩</w>
观 念</w>
v olu
看 见</w>
dis semination</w>
准 确</w>
un employment</w>
fe ar</w>
c ard</w>
民 族
书 面</w>
bos nia</w>
听 到</w>
n y</w>
struc tural</w>
尼日 利亚</w>
bl ue</w>
vot ed</w>
en ting</w>
nig er
R C</w>
re integration</w>
ga za</w>
sk y</w>
设 置</w>
怀 疑</w>
2 50</w>
政治 权利</w>
一 半</w>
con tain</w>
a. m.</w>
inter ven
t esting</w>
mo bile</w>
ac tor</w>
part ner</w>
ain t</w>
te dly</w>
es sion</w>
政 府
satisfac tion</w>
sm all
gen e
教 学</w>
ex plan
利 比亚</w>
工 业
g or
pen sion</w>
arch it
荒 漠化</w>
泰 国</w>
at titu
publ ication</w>
re p
main taining</w>
publ ications</w>
上 帝</w>
尽 快</w>
le one</w>
car ri
捐助 者</w>
wor th</w>
f al
a por
sen d</w>
o i
失 败</w>
注 重</w>
mort ality</w>
st op
e ties</w>
sel ection</w>
庇 护</w>
衡 量</w>
targe ted</w>
expen ses</w>
参 与
disa sters</w>
te acher</w>
月 份</w>
y an</w>
飞 行</w>
bar ri
n d</w>
a e</w>
prob ably</w>
enti ty</w>
伊 朗
g en</w>
加 上</w>
aim s</w>
ha iti</w>
论 会</w>
con dem
ac ked</w>
w er</w>
go es</w>
sensi tive</w>
de dic
sustain ed</w>
马来 西亚</w>
k il
atten d</w>
合 法
air port</w>
compe ten
电 脑</w>
mal ay
cel e
任 意</w>
中 国
str on
int ell
f ile</w>
cro s
li min
investig ate</w>
co p</w>
ot h</w>
er ies</w>
fin ding</w>
ol a</w>
de a
op tim
2 6
commis sions</w>
yugosla via</w>
transi t</w>
advan cement</w>
波 兰</w>
C E
un .org</w>
c ali
两 次</w>
格 鲁
reser ve</w>
mor oc
oce an</w>
phen omen
in a</w>
情 报</w>
dig ital</w>
pre limin
g y
足 以</w>
受害 人</w>
prison ers</w>
b is
1 %</w>
. 7</w>
squ are</w>
conven ed</w>
star ting</w>
设 法</w>
注 册</w>
ag gres
s on
接 近</w>
alloc ation</w>
掌 握</w>
受 理</w>
encoura ging</w>
与 其</w>
t ations</w>
. .</w>
有 所
main stream
nei ther</w>
分 摊</w>
re construction</w>
st abil
要 素</w>
t v</w>
-- --
let ters</w>
u ally</w>
for th</w>
op tion</w>
figh ting</w>
schedul ed</w>
beauti ful</w>
mess age</w>
conven tional</w>
优 势</w>
ch ris
repres ent</w>
gr ant</w>
bu s</w>
本 次</w>
宗 旨</w>
大 陆</w>
sel ling</w>
低 于</w>
1 10</w>
ga p</w>
ad y</w>
bo ys</w>
习 惯</w>
expan ded</w>
her it
ukra ine</w>
表 面</w>
监 禁</w>
sever e</w>
國 家</w>
power ment</w>
g ely</w>
多 种</w>
关 心</w>
看 来</w>
swe den</w>
em powerment</w>
bel on
play ing</w>
于 是</w>
per formed</w>
as yl
201 8</w>
中 华
de ad</w>
爆 炸</w>
up dated</w>
formul ation</w>
vin a</w>
vi i</w>
di e</w>
tr ou
manag ers</w>
潜 力</w>
pollu tion</w>
安 装</w>
四 届</w>
erb ai
v an
achie vements</w>
az erbai
就 此</w>
委 员</w>
mo vi
澄 清</w>
巴勒 斯坦
prelimin ary</w>
管辖 权</w>
生 育</w>
propor tion</w>
transi tional</w>
inten si
前 景</w>
hus band</w>
l ying</w>
ber t</w>
extre m
彻 底</w>
第 九
所 谓</w>
re alization</w>
ab ol
trans national</w>
格鲁 吉
geograph ical</w>
con strain
re fer</w>
bal an
be ar</w>
好 处</w>
ti ous</w>
b ited</w>
thin king</w>
philip p
h tt
amen ded</w>
g one</w>
重 返</w>
tra vel
char ges</w>
w ishes</w>
性 能</w>
o ts</w>
过 境</w>
当 选</w>
acc used</w>
equ itable</w>
设 想</w>
d ance</w>
histor ical</w>
完 善</w>
adap tation</w>
检 测</w>
cham pi
雇 主</w>
car bon</w>
clu b</w>
penal ty</w>
inde x</w>
许 可</w>
draf ting</w>
ec ture</w>
leban ese</w>
estim ate</w>
so ft</w>
4 %</w>
保 存</w>
comm and</w>
pro gres
产 出</w>
伊斯 兰</w>
与此 同时</w>
enjo y
会 计</w>
名 称</w>
volu me</w>
讨 论会</w>
气 体</w>
少数 民族</w>
第三 次</w>
丰 富</w>
ar d
d augh
intell ec
拉 圭</w>
推 迟</w>
乌 干
照 顾</w>
多 次</w>
引 渡</w>
lead er</w>
exten sive</w>
dan ger
黑 塞
发 行</w>
mon day</w>
革 命</w>
stru gg
i e</w>
manag er</w>
界 定</w>
incre ases</w>
manag ed</w>
ou d</w>
检 查
主 教</w>
protec ting</w>
重 复</w>
believ es</w>
公共 部门</w>
拉 斯</w>
e z
cy pr
驱 逐</w>
主 动</w>
主 张</w>
laun ch</w>
per form</w>
r .1</w>
有 利</w>
k i</w>
塞 尔
leg ally</w>
f illed</w>
清 洁</w>
供应 商</w>
蒙 特
世界 各地</w>
细 则</w>
repres ents</w>
一 方</w>
mis si
卫生 组织</w>
对 待</w>
lar gely</w>
克 服</w>
reser vations</w>
chec k</w>
讲 话</w>
im prison
pl us</w>
k o</w>
asyl um</w>
ho t</w>
initi ated</w>
ti eth</w>
cypr us</w>
登 记
prohi bition</w>
con cep
ar di
georgi a</w>
il o</w>
pen ding</w>
s low
2 7
pl i
被 告</w>
认 真</w>
us h
乌干 达</w>
下 去</w>
ze go
th or
nom in
wea ther</w>
限 于</w>
奥 地利</w>
空 缺</w>
核 裁军</w>
一 只</w>
und i</w>
does n</w>
出 售</w>
academ ic</w>
cho ose</w>
her zego
f res
阿尔及 利亚</w>
上 海</w>
wee k
schedul e</w>
coordin ating</w>
compl y</w>
许 可
ex ports</w>
invest ors</w>
es co</w>
li ons</w>
约 翰</w>
部长 级</w>
赞 成</w>
至 于</w>
dis semin
re member</w>
结 婚</w>
easi ly</w>
herzego vina</w>
fri day</w>
0 9</w>
负 责
询 问</w>
p ass</w>
志 愿
新加 坡</w>
9 63</w>
支 援</w>
br inging</w>
n ial</w>
pil ot</w>
信息 技术</w>
intern ally</w>
黑塞 哥
格鲁吉 亚</w>
ol es
conser vation</w>
control led</w>
e at</w>
ex pe
arre sted</w>
re ality</w>
por tu
10 1</w>
简 要</w>
accep table</w>
m ir
g on
听 取</w>
resol ve</w>
n am</w>
noti ce</w>
金融 机构</w>
咨 询
两 项</w>
curren cy</w>
实 地</w>
ac compan
cele br
黑塞哥 维
黑塞哥维 那</w>
西 方</w>
海 关</w>
extrem ely</w>
substan ces</w>
w ind</w>
下 文</w>
be l</w>
innov ation</w>
连 接</w>
老 年人</w>
警 方</w>
st aff
年 轻
ma kers</w>
enabl ing</w>
k ar
indi an</w>
temper ature</w>
endor sed</w>
或 许</w>
翻 译</w>
stre am</w>
clo sure</w>
htt p</w>
fore sts</w>
li ability</w>
your self</w>
prepar ing</w>
年度 报告</w>
v or
uc k</w>
te en</w>
fav our</w>
assess ed</w>
di gn
en su
rati fied</w>
bre ak
chil d
8 %</w>
regul arly</w>
情 形</w>
有 效
两 名</w>
s li
一 致
s ong</w>
legi timate</w>
排 除</w>
交 通
i vo
警 察
re r</w>
dra wn</w>
inci dents</w>
k h
伊斯兰 共和国</w>
bur undi</w>
恤 金</w>
off ence</w>
f light</w>
dec ades</w>
提供 援助</w>
resid ent</w>
方 便</w>
presid ential</w>
stu died</w>
pursu e</w>
j a</w>
这 位</w>
征 聘</w>
id ity</w>
应 急</w>
fi re
dar fur</w>
眼 睛</w>
ar ising</w>
许可 证</w>
man age</w>
通 讯</w>
行 预</w>
拨 款</w>
八 届</w>
contro ls</w>
欧 元</w>
system atic</w>
2 5
h it</w>
克罗 地
ar rest</w>
医 疗
定 于</w>
el a</w>
campai gn
spe ech</w>
地 震</w>
sp ring</w>
judic i
就 业
danger ous</w>
出 于</w>
de ad
ful fil</w>
五 届</w>
五 个</w>
智 利</w>
我 会</w>
测 量</w>
model s</w>
化 学</w>
七 届</w>
e di
阿塞拜 疆</w>
ab road</w>
recogn izes</w>
s c</w>
bin ding</w>
super vis
cel l</w>
hop ed</w>
frame works</w>
dispu tes</w>
0 6</w>
mone tary</w>
塞 尔</w>
sti pul
as tic</w>
教科 文
enjoy ment</w>
收 益</w>
objec ts</w>
货 币
教科文 组织</w>
耶 路
豁 免</w>
耶路 撒
深 入</w>
li es</w>
a head</w>
病 人</w>
im port</w>
program ming</w>
ca p</w>
加 速</w>
de ter
allow s</w>
一 件</w>
co vering</w>
理 想</w>
direc ted</w>
航 空
than ks</w>
197 8</w>
se ment</w>
6 %</w>
周 年</w>
案 例</w>
特 别
n ur
mainstream ing</w>
提 升</w>
sh u
西 非</w>
there by</w>
re views</w>
equ ity</w>
intelli gence</w>
规 约</w>
impro vements</w>
acqui si
off ers</w>
马 拉</w>
身 上</w>
al es</w>
colom bia</w>
re new
comple tely</w>
敏 感</w>
薪 金</w>
e x</w>
niger ia</w>
耶路撒 冷</w>
197 0</w>
东 道
i o</w>
fac ts</w>
sustain ability</w>
u gan
suff ering</w>
att ached</w>
培 养</w>
人 居</w>
198 4</w>
0 8</w>
将 来</w>
衣 服</w>
expres ses</w>
U N
观察 团</w>
exp and</w>
经 委会</w>
lim its</w>
g ain</w>
an ci
动 力</w>
晚 上</w>
策 略</w>
lin ks</w>
form ity</w>
农 民</w>
re al
loo ks</w>
al em</w>
un od
发言 者</w>
affec ting</w>
char ged</w>
哈 拉</w>
th ail
m er</w>
有 限
enem y</w>
著 名</w>
su ffered</w>
缅 甸</w>
as ing</w>
st y</w>
受 益</w>
b ound</w>
互 联网</w>
面 积</w>
o red</w>
ad mis
告 知</w>
trans actions</w>
thail and</w>
leng th</w>
sti mul
p p
innov ative</w>
f ill</w>
肯 尼亚</w>
cro ati
应 付</w>
邮 件</w>
wr ong</w>
现 代
sav ings</w>
semin ar</w>
纪 念</w>
提 醒</w>
互 动</w>
dis pos
民 国</w>
金 属</w>
distribu ted</w>
刚 果</w>
tre ated</w>
柬 埔
e. g.</w>
wat ch</w>
pa rent</w>
A n
alloc ated</w>
护 理</w>
外 国人</w>
中 央
198 1</w>
cro w
cre di
保 险
e ded</w>
jur y</w>
ro b
遵 循</w>
tal ks</w>
op position</w>
join tly</w>
th u
新闻 部</w>
cl es</w>
口 头</w>
名 义</w>
assign ed</w>
extre me</w>
li e</w>
k m</w>
ex hi
ke ts</w>
unod c</w>
com position</w>
b its</w>
dis abl
本 届</w>
成 年人</w>
削 减</w>
考 试</w>
ob vi
不 够</w>
j ord
ta bles</w>
因 為</w>
谅 解</w>
c is
朝 鲜
补 偿</w>
这 份</w>
发 射</w>
惯 例</w>
neigh bour
in si
ti ally</w>
complain ant</w>
ic ated</w>
exam ine</w>
profes sion
t elec
建设 性</w>
作 业</w>
any one</w>
experi enced</w>
ethiop ia</w>
ch ron
sol d</w>
广 告</w>
stor age</w>
jer us
ivo ire</w>
看 看</w>
短 期</w>
facilit ating</w>
距 离</w>
国 内
cle an
pro spec
bro ther</w>
ch ance</w>
tre e</w>
移 动</w>
0 3</w>
职 业
techni ques</w>
&apos; ivoire</w>
at mo
ic t</w>
al ger
play ers</w>
judici ary</w>
k new</w>
否 则</w>
公民 权利</w>
quar ter</w>
ira qi</w>
塞浦路 斯</w>
becom es</w>
工 会</w>
col or</w>
un esco</w>
首 席</w>
产 业</w>
玻 利
裁 军
裁军 谈判</w>
r al</w>
as set</w>
si r</w>
c t</w>
如 今</w>
rem ote</w>
preven tive</w>
deman ds</w>
tra ined</w>
mon thly</w>
wh at
突 然</w>
特 里亚</w>
pro stitu
promis e</w>
生 存</w>
c z
par as</w>
ent al</w>
foot ball</w>
er o
jerus alem</w>
fa ith</w>
y i
even tually</w>
imp acts</w>
sh ou
mis s</w>
销 毁</w>
1 2.
sa ve</w>
比 利
solid arity</w>
体 育</w>
batt le</w>
明 白</w>
apor e</w>
war ning</w>
格 式</w>
intellec tual</w>
最高 法院</w>
ch ers</w>
da w</w>
fis cal</w>
经 理</w>
res e
合 物</w>
deploy ed</w>
越 南</w>
本 人</w>
有 用</w>
transpa rent</w>
in tention</w>
s aint</w>
密切 合作</w>
li sts</w>
房 子</w>
持 续性</w>
10 2</w>
ex ac
m use
减 贫</w>
z z
explain ed</w>
c lear
re aching</w>
m d
连 续</w>
in ary</w>
基 督
国 民
il s</w>
联 络</w>
new sp
o dy</w>
h all</w>
can cer</w>
ra y</w>
厄 立
so il</w>
fa o</w>
bur den</w>
厄立 特里亚</w>
无 论
ser v
事 先</w>
dri ve</w>
年轻 人</w>
tion ary</w>
mon y</w>
soci o</w>
发 放</w>
gra ve</w>
c ô
总 数</w>
nutri tion</w>
补 贴</w>
rel ative</w>
equi val
经济 体</w>
紧 张</w>
m its</w>
program s</w>
缺 少</w>
sing apore</w>
dec line</w>
用 品</w>
男 女
sh ang
信 心</w>
a ke</w>
兄 弟</w>
房 间</w>
ex cep
n av
叙 利亚
导 弹</w>
im ag
ment ally</w>
wash ington</w>
beli ef</w>
obstac les</w>
0 7</w>
ro les</w>
海 外</w>
olymp ic</w>
associ ations</w>
独 特</w>
comp il
out put</w>
绝 对</w>
组 合</w>
co m</w>
om e
财务 报表</w>
分 之一</w>
1 30</w>
play er</w>
us h</w>
cô te</w>
伊朗 伊斯兰共和国</w>
id ly</w>
后 者</w>
super vision</w>
ser ving</w>
l o</w>
sec tions</w>
friend ly</w>
2 nd</w>
pl ants</w>
恐 怖</w>
clu ster</w>
newsp ap
ur s</w>
exam ined</w>
mari time</w>
d ul
正 规</w>
bl o
con vin
精 神
197 9</w>
国 防
6 ,
coordin ate</w>
关 联</w>
时 间
sub committee</w>
丹 麦</w>
j i</w>
每 月</w>
o ci
th ur
普 遍
trans ferred</w>
b ab
por ted</w>
it re
persi st
de pos
国务 院</w>
safegu ards</w>
u k</w>
东道 国</w>
科 学家</w>
转 变</w>
disabl ed</w>
industri es</w>
valu able</w>
失 业</w>
is s</w>
b ar</w>
囚 犯</w>
dea ths</w>
up date</w>
pat h</w>
bur g</w>
arbitr ation</w>
pre mis
人 道</w>
安 哥
san itation</w>
se emed</w>
gl ad
决 策
vi d</w>
heal thy</w>
l in</w>
stri es</w>
proto col
war ded</w>
e y</w>
coun t</w>
m m</w>
ce re
vic es</w>
doc tor</w>
关 闭</w>
hous es</w>
moroc co</w>
tai wan</w>
diag no
des tin
扩 展</w>
par ame
会 上</w>
vers ary</w>
he ar
尊 严</w>
地 理</w>
austri a</w>
改 为</w>
监 察
hot el</w>
d ness</w>
初 级</w>
parlia mentary</w>
下 面</w>
el l</w>
b ad
malay sia</w>
resid ents</w>
以 此</w>
jam a
n one</w>
gro w</w>
忘 录</w>
备 忘录</w>
philipp ines</w>
el se</w>
加 剧</w>
批 评</w>
purch ase</w>
非 常
constrain ts</w>
ris ing</w>
营 养</w>
不 管</w>
废 除</w>
任何 人</w>
er itre
协商 一致</w>
e ye</w>
教 堂</w>
秘 密</w>
ali d</w>
某 种</w>
protocol s</w>
动 机</w>
作 者</w>
com ment</w>
or al</w>
左 右</w>
正 义</w>
cont em
信 号</w>
great ly</w>
tow ard</w>
inv ites</w>
ag greg
ab solu
suc ce
mem ory</w>
azerbai jan</w>
depend ent</w>
identi fying</w>
s per
en de
快 乐</w>
commer ce</w>
cap abilities</w>
其 他人</w>
陈 述</w>
loc ked</w>
芬 兰</w>
配 置</w>
来 看</w>
1 11</w>
ma d</w>
col um
an d
success fully</w>
cam bo
continu ous</w>
per mit</w>
soci eties</w>
ro me</w>
法 语</w>
as sum
medic ine</w>
adjust ment</w>
aud i</w>
10 .
reser vation</w>
人 格</w>
el d</w>
regi ster</w>
10 3</w>
推 行</w>
seri ously</w>
百分 比</w>
auth ors</w>
197 3</w>
shang hai</w>
pres cri
人 人</w>
expl ore</w>
gi c</w>
c p
re placed</w>
退 休</w>
不 论</w>
an mar</w>
等 待</w>
限 度</w>
sa har
警 告</w>
ha m</w>
hel ping</w>
su itable</w>
h i</w>
pap ers</w>
bel gi
mo stly</w>
文 本</w>
各 类</w>
列 表</w>
indic ates</w>
旅 游
ce daw</w>
loc ations</w>
ken ya</w>
被 迫</w>
照 片</w>
强 制
遣 队</w>
房 屋</w>
ro yal</w>
quir y</w>
pl ays</w>
my anmar</w>
持 有</w>
patter n</w>
pass eng
bi o
固 定</w>
阿拉伯 叙利亚
阿拉伯叙利亚 共和国</w>
w age</w>
chil e</w>
b ag
intro duce</w>
進 行</w>
prof essor</w>
sch ol
s low</w>
construc tive</w>
另 一方面</w>
coun sel</w>
ar m</w>
培 训
价 值
第二 个</w>
撒 哈拉</w>
外 勤</w>
C .2</w>
c ab
w ards</w>
耶 和
妈 妈</w>
en vis
近 年来</w>
暂 停</w>
巴 布
尼 泊
四 条</w>
印 发</w>
advoc acy</w>
c at</w>
r d</w>
m atic</w>
id ation</w>
融 合</w>
i on</w>
四 年</w>
渔 业</w>
设 在</w>
human ity</w>
几内 亚</w>
cur ricul
c .
I N
始 终</w>
19 49</w>
安 置</w>
great est</w>
lab or</w>
sel l</w>
di st
con formity</w>
学 会</w>
探 索</w>
viol ated</w>
to x
联 邦
bol i
st ages</w>
re place</w>
第四 次</w>
re ply</w>
效 应</w>
guarante es</w>
un il
bound ary</w>
dep th</w>
ple d
10 4</w>
ay ed</w>
pic ture</w>
anni versary</w>
提 高
im migration</w>
e ous</w>
accep tance</w>
文 明</w>
cu tting</w>
为 期</w>
至 今</w>
conf ron
cell s</w>
gre en
dro p</w>
g al
balan ced</w>
孟 加拉
ti v
夫 人</w>
li ved</w>
工 艺</w>
un mi
elec tric</w>
积极 参与</w>
no on</w>
感 兴趣</w>
共 体</w>
配 合</w>
foc al</w>
re mo
得 出</w>
ec ting</w>
ti fication</w>
7 ,
rap idly</w>
consum er</w>
simil arly</w>
ugan da</w>
s or</w>
2 3
discrimin atory</w>
farm ers</w>
oper ate</w>
共 计</w>
s audi</w>
强 化</w>
加 工</w>
di stance</w>
fe asi
这 场</w>
全 面
1 1.
s day</w>
po land</w>
必 要
10 6</w>
约 束
tu esday</w>
公 园</w>
manufac turing</w>
实 验
he at</w>
peri ods</w>
log istics</w>
house hold</w>
em o
空 气</w>
立 法
粮 农
粮农 组织</w>
一 座</w>
婴 儿</w>
jour nal</w>
di ff
ste el</w>
耶和 华</w>
dign ity</w>
anti cip
备 选</w>
克罗地 亚</w>
工作 者</w>
近 东</w>
c up</w>
ear th
周 围</w>
国 会</w>
wi des
the sis</w>
er a</w>
ori ented</w>
标 志</w>
ar men
0 2</w>
移 交</w>
198 3</w>
卖 淫</w>
ye ster
c .2</w>
ul ts</w>
arbitr ary</w>
recall ed</w>
认 定</w>
campaign s</w>
ent re
当事 人</w>
wal k</w>
sp ending</w>
随 时</w>
dar k</w>
stoc ks</w>
new ly</w>
自然 灾害</w>
形 势</w>
女 儿</w>
competi tive</w>
quali fied</w>
infl ation</w>
附 加</w>
生态 系统</w>
bi d</w>
vo ting</w>
hom es</w>
dynam ic</w>
bel ar
utili zation</w>
ende av
流 行</w>
pre ad</w>
obser v
缺 陷</w>
f ishing</w>
form at</w>
wides pread</w>
名 额</w>
certain ly</w>
parti al</w>
consequ ently</w>
i ent</w>
国际 法庭</w>
毫 无
入 侵</w>
promot ed</w>
occu r</w>
大 韩
allow ing</w>
認 為</w>
大韩 民国</w>
demonstr ated</w>
vis ited</w>
有 害</w>
参 数</w>
dee ply</w>
bl ed</w>
wed n
r in
十 一届</w>
穆 斯
thur sday</w>
算 法</w>
10 8</w>
cap able</w>
anim als</w>
te sts</w>
frequ ently</w>
依 靠</w>
小 学</w>
来 到</w>
tro op</w>
展 示</w>
anci ent</w>
hu ge</w>
裁 定</w>
缔 结</w>
n pt</w>
contr ary</w>
over come</w>
铁 路</w>
安哥 拉</w>
e ful</w>
correc t</w>
moun tain</w>
葡萄 牙</w>
s pl
func tional</w>
power ful</w>
到 达</w>
受 伤</w>
国 外</w>
acquisi tion</w>
亚 美
约 旦</w>
s as</w>
博 士</w>
i. e.</w>
负责 人</w>
co vers</w>
活 性</w>
说 法</w>
call ing</w>
老 师</w>
sur r
re venue</w>
毛 里
交 付</w>
rail way</w>
j ac
留 下</w>
文 化
so viet</w>
s par
劳 工
tim or</w>
重 大
工 厂</w>
绿 色</w>
所 列</w>
reiter ated</w>
回 来</w>
remedi es</w>
联 络
赢 得</w>
k a
yester day</w>
w illing</w>
w to</w>
雇 用</w>
proper ties</w>
he aring</w>
ban glad
wedn esday</w>
极 大</w>
turk ish</w>
o to</w>
cam p</w>
aud itors</w>
ro te</w>
adver ti
l ining</w>
白 俄罗斯</w>
危 地
先 前</w>
correspon ding</w>
R ev
de vices</w>
坚 定</w>
重 新
概 算</w>
信息 系统</w>
u ri
trans mitted</w>
wit nesses</w>
个 人
comp ati
imprison ment</w>
孟加拉 国</w>
主 办</w>
充 足</w>
fe et</w>
动 态</w>
制 造
19 60</w>
om mun
reli able</w>
el led</w>
共 享</w>
eng land</w>
x i</w>
柬埔 寨</w>
C or
lin k
method ology</w>
康 复</w>
tu m</w>
以 为</w>
9 %</w>
com posed</w>
mus li
con tra
看 起来</w>
比利 时</w>
l asting</w>
def ense</w>
I S
上 面</w>
inter vention</w>
graph ic</w>
中 国政府</w>
委 内
sec toral</w>
v an</w>
busin esses</w>
refl ects</w>
invol ve</w>
委内 瑞
渠 道</w>
com for
電 影</w>
broad er</w>
强 大</w>
区 别</w>
re stor
f ers</w>
历 史
严 重
ev ol
反 对
ad oles
的 确</w>
mat ch</w>
co ast
l ay</w>
g al</w>
equ ally</w>
incorpor ated</w>
gre ek</w>
0 4</w>
1 12</w>
ess ed</w>
审 计
acces sible</w>
罗 马
着 手</w>
execu tion</w>
sal ary</w>
繁 荣</w>
幸 福</w>
汇 率</w>
custom ers</w>
voc ational</w>
w al</w>
pi ece</w>
der ly</w>
10 7</w>
lo se</w>
经 验
变 革</w>
top ics</w>
元 素</w>
n an
mo vements</w>
国 王</w>
西班 牙
destro yed</w>
可 用</w>
b c</w>
w rote</w>
财 富</w>
当 中</w>
fra g
doll ar</w>
驻 地</w>
commod ity</w>
引 发</w>
deli ver</w>
un am
比 率</w>
总 结</w>
alger ia</w>
assi ve</w>
毁 灭
r an</w>
at om
hosp it
基 因</w>
jord an</w>
据 称</w>
邻 国</w>
t ari
mod ul
韩 国</w>
h und
不 想</w>
perpetr ators</w>
pro p
基 准</w>
re min
doub t</w>
g dp</w>
ti s</w>
l aid</w>
w inter</w>
foc using</w>
s ity</w>
ha ir</w>
es sive</w>
scienti sts</w>
毁灭 性</w>
tele phone</w>
daugh ter</w>
entre pre
in put</w>
ple ased</w>
汇 编</w>
re sumed</w>
cop ies</w>
g t;</w>
& gt;</w>
穆斯 林</w>
sec ret</w>
hund red</w>
mar gin
oi os</w>
g un
municip al</w>
南 方</w>
解 放
divi ded</w>
里 兰
刺 激</w>
connec ted</w>
8 ,
dedic ated</w>
董 事会</w>
pris ing</w>
mor al</w>
内 罗
约束 力</w>
遗 产</w>
is ol
arri ved</w>
成 為</w>
l en
tom or
l un
ec h
prostitu tion</w>
staff ing</w>
战 斗</w>
一 部</w>
hol der</w>
过 渡
不 应</w>
爆 发</w>
sk in</w>
e pi
em en</w>
内罗 毕</w>
lo ans</w>
mater nal</w>
表 格</w>
pro ved</w>
in sul
classi fication</w>
获 悉</w>
事 态</w>
banglad esh</w>
relation ships</w>
签 订</w>
mis sing</w>
1 15</w>
dan ger</w>
這 些</w>
ac commod
2 4
semin ars</w>
expl ain</w>
wi der</w>
C .3</w>
windo w</w>
v it
ju ven
p ill
sho t</w>
anim al</w>
秘 鲁</w>
expl ic
dra wing</w>
reiter ates</w>
ill in
ho sti
可 持续性</w>
企 图</w>
reaffir ming</w>
ex ha
突 尼斯</w>
gu il
we ak</w>
重 于</w>
签 名</w>
武 力</w>
发言 人</w>
這 個</w>
尝 试</w>
匈 牙
transl ation</w>
充 满</w>
ref ers</w>
u es</w>
cc c</w>
科 技
hun g
成 效</w>
摊 款</w>
结 构
高 于</w>
assi sting</w>
A C.
做 到</w>
含 有</w>
小 行星</w>
那 种</w>
所 在</w>
er r
A l
fin land</w>
he re
内 陆</w>
继 承</w>
o v</w>
sol id</w>
k es
大 幅</w>
领 袖</w>
问 责
调 解</w>
s p</w>
出 去</w>
投 诉</w>
tain ment</w>
地 带</w>
fam ous</w>
fir ms</w>
do g</w>
k az
op ho
知识 产权</w>
现 状</w>
幅 度</w>
删 除</w>
ad ed</w>
有限 公司</w>
ac .
么 样</w>
氧 化
循 环</w>
特 遣队</w>
du al</w>
mini stries</w>
at em
朝 鲜</w>
ag ents</w>
brief ing</w>
奥 运
间 接</w>
多 尔</w>
坐 在</w>
众 多</w>
t wel
uni versi
it ations</w>
dispos al</w>
sle ep</w>
p. m</w>
ak h
mobil ization</w>
灵 活</w>
星期 五</w>
distin gu
small er</w>
ab sor
resid ence</w>
处 境</w>
合 适</w>
s ac
mach in
上 空</w>
现 场</w>
en nial</w>
or dered</w>
mer cur
prof it</w>
imp unity</w>
mag az
fra u
私 营</w>
mo on</w>
197 5</w>
过 来</w>
f ounded</w>
p it
西 部</w>
manag ing</w>
季 度</w>
时间 表</w>
un fortun
委内瑞 拉</w>
一 国</w>
kin ds</w>
f air
l am
d ation</w>
俱 乐
亚 太
dis h</w>
国际 法院</w>
sub stance</w>
suppl i
星期 一</w>
accompan ied</w>
ann ex
contr acting</w>
分 庭</w>
国际 贸易</w>
produc tivity</w>
空 中</w>
tomor row</w>
da vid</w>
法 定</w>
职 人员</w>
liber ty</w>
complain t</w>
an ian</w>
俱乐 部</w>
pack age</w>
vulner ability</w>
塞尔 维亚</w>
东 部</w>
equival ent</w>
cali for
fe ature</w>
prohi bited</w>
1 14</w>
某 个</w>
l ers</w>
何 种</w>
ro ck</w>
单 一</w>
本 地</w>
元 首</w>
har m</w>
inci dent</w>
der ing</w>
1 40</w>
罪 犯</w>
se t
rejec ted</w>
ab an
20 20</w>
stres ses</w>
ld cs</w>
ten th</w>
poli tics</w>
t ack
consi sts</w>
al ing</w>
deser tification</w>
管理 人员</w>
fi es</w>
危地 马拉</w>
z ones</w>
man dated</w>
地 址</w>
patter ns</w>
budge ts</w>
g aps</w>
s man</w>
坚 决</w>
一 段</w>
usu al</w>
ir ing</w>
m ass
穷 人</w>
gu atem
fac es</w>
feel ing</w>
te l</w>
dis play
accur ate</w>
资源 管理</w>
增 长
herit age</w>
prepar ations</w>
lo s</w>
fo ster</w>
proper ly</w>
海洋 法</w>
ven ez
杂 志</w>
recommen d</w>
六 届</w>
resi stance</w>
普 通
inter action</w>
应 用
rati o</w>
fa ult</w>
au l</w>
诊 断</w>
s port</w>
tre asu
197 4</w>
convin ced</w>
人 群</w>
con sci
承 包
per s</w>
de tained</w>
in sufficient</w>
手 术</w>
边 境</w>
exp ect</w>
t ative</w>
9 ,
纲 要</w>
单 方面</w>
tax onomy</w>
presid ency</w>
display style</w>
直 至</w>
pro sper
dec ree</w>
subjec ted</w>
职 等</w>
fra me</w>
mercur y</w>
专门 知识</w>
d ying</w>
保 持
c ot
organiz e</w>
pen al</w>
oc k</w>
厄 瓜
aut onom
over seas</w>
out lined</w>
i ally</w>
ch ri
l ou
man ual</w>
假 设</w>
极 为</w>
happen ed</w>
avi ation</w>
aw ards</w>
指 挥
belar us</w>
缓 解</w>
强 奸</w>
1 13</w>
kore an</w>
desi re</w>
resol ved</w>
忽 视</w>
venez u
e c</w>
re alize</w>
a dian</w>
c .3</w>
d f</w>
seg ment</w>
有 罪</w>
my self</w>
说 话</w>
ban king</w>
1 16</w>
艺 术
de vice</w>
问责 制</w>
格 兰</w>
del e
rap e</w>
用 作</w>
w ants</w>
ta r</w>
evalu ate</w>
enfor ced</w>
premis es</w>
1 60</w>
ro bi</w>
advant ages</w>
w ished</w>
ha el</w>
el ine</w>
croati a</w>
cop y</w>
universi ties</w>
or gan</w>
y l</w>
援 助
sr i</w>
welcom ing</w>
一 张</w>
pos s
协 同</w>
阅 读</w>
农 业
志愿 人员</w>
deal t</w>
arrange ment</w>
reaffir ms</w>
巴勒斯坦 人</w>
nar co
作 家</w>
其 实</w>
law ful</w>
what ever</w>
re fer
inv itation</w>
极 端</w>
bra in</w>
总 值</w>
phenomen on</w>
轨 道</w>
wa ve</w>
phil os
stan ds</w>
nai robi</w>
S R
sugges tions</w>
利 率</w>
in jury</w>
跟 踪</w>
复 员</w>
英 國</w>
re patri
帐 户</w>
signific ance</w>
有 益</w>
d ry</w>
mod alities</w>
级 别</w>
repres enting</w>
cam ps</w>
专 业
d u</w>
退 化</w>
obser vation</w>
自 从</w>
不 良</w>
tre es</w>
dem ic</w>
min or</w>
cohe rence</w>
T ax
中华 人民共和国</w>
sum mar
麻 醉
各 位</w>
produc ing</w>
gen oci
bal ances</w>
over view</w>
贸易 法</w>
13 73</w>
c as
拖 延</w>
内 部
奥运 会</w>
reg ards</w>
co al</w>
mil lions</w>
dre am</w>
载 于</w>
sug gest</w>
1 .1</w>
18 0</w>
斯 里兰
tain e
en e</w>
re feren
各 项
筹 备
conduc ting</w>
califor nia</w>
定 居
时 刻</w>
en rol
首 都</w>
例 外</w>
nation als</w>
之 内</w>
持 久
telec ommun
卡 塔
性 暴力</w>
愿 望</w>
产 妇</w>
inven tory</w>
尼泊 尔</w>
金 额</w>
under stood</w>
constitu tes</w>
现代 化</w>
ther ap
earth qu
f esti
stor m</w>
相 当
分 散</w>
处 决</w>
resear chers</w>
华 盛
结 果
前 提</w>
re cip
监 督
custom er</w>
b orders</w>
转 型</w>
Tax onomy</w>
行政 当局</w>
识 别</w>
la ke</w>
南 南
om bud
个 别</w>
ap ping</w>
gen u
ag ent</w>
m as</w>
pa in</w>
法 行为</w>
n t</w>
be t</w>
sp end</w>
st es</w>
召 集</w>
丧 失</w>
能 否</w>
大 不
南南 合作</w>
le ment</w>
spon sors</w>
competen ce</w>
grat ul
D P</w>
网 上</w>
倾 向</w>
re im
at lan
marke ting</w>
cambo dia</w>
CN .4</w>
大 大</w>
ber g</w>
per u</w>
demo bil
de tail</w>
体 育
con gratul
acknowled ged</w>
gran d
integr ate</w>
1 .2</w>
外交 部</w>
广 播</w>
be red</w>
谈 会</w>
house holds</w>
南 亚</w>
pre mi
不 少</w>
im possible</w>
regar ded</w>
be gun</w>
b o</w>
withdra wal</w>
斯里兰 卡</w>
certific ate</w>
may be</w>
e ar</w>
ch ain</w>
不 人道</w>
organ ic</w>
t d</w>
lia ison</w>
沟 通</w>
团 队</w>
ti mat
comb ination</w>
交 易
sti c</w>
此 项</w>
1 18</w>
会计 准则</w>
mean while</w>
议 院</w>
中 间</w>
lic en
law yers</w>
核 定</w>
每 次</w>
决 权</w>
ex ception</w>
等 等</w>
ric h
匈牙 利</w>
trans mission</w>
co ast</w>
gre ece</w>
relev ance</w>
ex po
彼 此</w>
反 腐败</w>
追 求</w>
discipl inary</w>
origin ally</w>
1 22</w>
很 难</w>
x en
ba by</w>
fo rec
全 国
deliber ations</w>
gain s</w>
jun ction</w>
cz ech</w>
re move</w>
明 天</w>
perf ect</w>
al g
社会 保障</w>
ex emp
barri ers</w>
prom p
integr al</w>
el e
不 幸</w>
at a</w>
简 化</w>
s tic
暂 时</w>
dis covered</w>
能 量</w>
re ne
ou tre
遣 返</w>
wat er
ligh ts</w>
形 象</w>
c in
祝 贺</w>
首 长</w>
地 面</w>
命 名</w>
s mil
质 疑</w>
it alian</w>
alli ance</w>
真 实</w>
列 颠</w>
inv o
fas hi
eng ine</w>
ri ties</w>
abl es</w>
as ser
advis er</w>
升 级</w>
1 ,000</w>
红 十
a sion</w>
re moved</w>
图 像</w>
偿 还</w>
electr icity</w>
autonom ous</w>
各 个
由 此</w>
年 初</w>
海 上</w>
哈 萨
me ant</w>
mo de</w>
provin ces</w>
coast al</w>
平 方
197 6</w>
必 要性</w>
沙 特
法 典</w>
muse um</w>
i x</w>
林 匹
失 业
explan ation</w>
hol id
实 质</w>
deter i
自 治
or ing</w>
其 余</w>
京 都</w>
骚 扰</w>
197 1</w>
余 额</w>
197 7</w>
多 地</w>
un ops</w>
过 度</w>
contin gent</w>
sha pe</w>
interven tions</w>
d less</w>
initi ally</w>
2 .1</w>
viol ent</w>
formul ated</w>
巴 马</w>
n ity</w>
genoci de</w>
mon u
air space</w>
thous and</w>
mo tion</w>
yu an</w>
中 学</w>
万 人</w>
天 气</w>
联合国 开发计划署</w>
ro ll</w>
实验 室</w>
me tal</w>
汇 报</w>
fe es</w>
编 辑</w>
授 予</w>
restric ted</w>
psych ological</w>
克 共和国</w>
excell ency</w>
c oura
qu ick</w>
解决 方案</w>
u z
consolid ated</w>
1 17</w>
poli tici
p ace</w>
in adequate</w>
appl ying</w>
st on</w>
s at</w>
reim bur
發 現</w>
memor an
政 权</w>
care fully</w>
怀 孕</w>
l ity</w>
杀 害</w>
大 小</w>
任 职</w>
st am
t ac
profession als</w>
cn .4</w>
op pos
灾 难</w>
容 性</w>
守 则</w>
inter ior</w>
是 从</w>
竞争 力</w>
attemp ts</w>
muni tion</w>
reaffir med</w>
l b</w>
de taine
ch en</w>
生 命
eritre a</w>
ca th
物 体</w>
思 考</w>
城 市
den mark</w>
1 25</w>
作 物</w>
s h</w>
外交 部长</w>
provin cial</w>
outre ach</w>
deri ved</w>
gl ass</w>
197 2</w>
爆 炸
会 谈</w>
大 學</w>
gener ated</w>
big gest</w>
frequ ency</w>
machin ery</w>
n ings</w>
一 支</w>
p in
fish eries</w>
on ization</w>
流 程</w>
核 可</w>
benef ici
厄瓜 多尔</w>
cr ises</w>
ai red</w>
int olerance</w>
wil li
excell ent</w>
bri ef</w>
亚美 尼亚</w>
tal king</w>
gradu ally</w>
这 儿</w>
di um</w>
subjec ts</w>
sol ve</w>
re vision</w>
依 法</w>
t am
nep al</w>
timat ely</w>
austr alian</w>
好 像</w>
all s</w>
indi rec
视 察</w>
vie wed</w>
维 修</w>
沒 有</w>
unil ateral</w>
排 雷</w>
vi ii</w>
ru p
de voted</w>
ac ce
al ban
别 的</w>
f it</w>
洗 钱</w>
披 露</w>
acci dent</w>
si ster</w>
fin ds</w>
ang ola</w>
战 斗
m acro
选 出</w>
defin e</w>
con stant</w>
tro p
under ing</w>
订 立</w>
利 润</w>
shi ft</w>
处 置</w>
日 子</w>
dur ation</w>
chan n
di am
sha res</w>
sc ot
cooper ative</w>
belgi um</w>
si bly</w>
assi sted</w>
分 为</w>
残 忍</w>
这 类</w>
从 未</w>
suc c
物 理</w>
国 别</w>
conten ts</w>
歌 曲</w>
北 爱尔兰</w>
制 品</w>
最 为</w>
转 递</w>
comm odi
应 有</w>
马 尔
加 尔</w>
gr and</w>
响 应</w>
迄 今
C .5</w>
里 面</w>
flexi ble</w>
un r
所 属</w>
档 案</w>
p ip
港 口</w>
奥 巴马</w>
coll ected</w>
tor ate</w>
普 查</w>
宗 教
adop ting</w>
物 资</w>
is n</w>
ro ads</w>
ra d
1. 5</w>
就 要</w>
破 产</w>
s ory</w>
地 域</w>
1 19</w>
expl oration</w>
bot tom</w>
a ks</w>
negoti ation</w>
dri ven</w>
cru el</w>
列 为</w>
conclu de</w>
消 耗</w>
ro ot</w>
o on</w>
clo ser</w>
t ch</w>
c p</w>
atmo sphere</w>
por ting</w>
even ing</w>
embar go</w>
we ar</w>
chan nel</w>
担 忧</w>
永 久</w>
separ ation</w>
bus h</w>
po ol</w>
corpor ation</w>
期 内</w>
時 間</w>
sor ry</w>
mag ne
税 收</w>
协调 一致</w>
克 里
journ alists</w>
心 理
J o
se at</w>
温 度</w>
finan ced</w>
中 非
um ul
allow ance</w>
开 幕</w>
大 西
促 成</w>
ser bia</w>
acqui red</w>
表 演</w>
ref used</w>
系 統</w>
相 似</w>
di versi
援助 团</w>
伟 大</w>
te sted</w>
殖民 化</w>
强 调
a f</w>
强调 指出</w>
同 事</w>
gr ati
2. 5</w>
庆 祝</w>
区 分</w>
第一 届</w>
af for
demonstr ate</w>
犯 下</w>
上 涨</w>
under taking</w>
tw ice</w>
迄 今</w>
align ed</w>
在 线</w>
expan ding</w>
d ad</w>
neu tr
综 合
enter ing</w>
ch r
contin ent</w>
n go</w>
负 债</w>
confi d
指 导
分 列</w>
bi odi
c k
所 得</w>
首 脑</w>
打 开</w>
ci ve</w>
ori th
证 券</w>
段 时间</w>
ten d</w>
behavi our</w>
americ ans</w>
有 机</w>
m al</w>
th es</w>
ex ists</w>
吸 收</w>
ad he
分 析
用 水</w>
commodi ties</w>
illu str
现 已</w>
紧急 情况</w>
检 验</w>
博 物
t esti
还 应</w>
记 得</w>
plan e</w>
d an</w>
覆 盖</w>
p c</w>
i ti
alg orith
movi e</w>
determin ing</w>
选 民</w>
entrepre ne
C R
de par
c asu
上 去</w>
vot es</w>
list en</w>
ky oto</w>
s b
degra dation</w>
年 前</w>
circul ated</w>
文 字</w>
compar ison</w>
unr wa</w>
营 养
ell s</w>
就业 机会</w>
一 所</w>
ad verse</w>
消 失</w>
gener ate</w>
运 动员</w>
审 评</w>
细 节</w>
太 阳</w>
t uni
开 会</w>
情 绪</w>
污 染
sovere ign</w>
ur ge</w>
gran ting</w>
envis aged</w>
民主 主义
guatem ala</w>
家 里</w>
交 给</w>
acade my</w>
emphasiz es</w>
统计 数据</w>
时 限</w>
ge ts</w>
wai ting</w>
la undering</w>
索 赔
新 型</w>
所 说</w>
windo ws</w>
cou ple</w>
secu rities</w>
大 多</w>
asp ect</w>
venezu ela</w>
sp ac
dri ving</w>
guarante ed</w>
reser ves</w>
罗马 尼亚</w>
recall s</w>
regar dless</w>
fres h</w>
多样 化</w>
gu ard</w>
改 造</w>
h at
朝鲜 民主主义
k an
xen opho
le ts</w>
hand ling</w>
up per</w>
生 态</w>
fin ished</w>
supple mentary</w>
m ly</w>
分 歧</w>
变 动</w>
haz ard
斯洛 伐
轻 武器</w>
ter y</w>
c .5</w>
rev olution</w>
repor tedly</w>
sugge sts</w>
y el
ra id</w>
den ied</w>
consider ations</w>
de pri
民 事</w>
de fe
计 划
u ph
谈 到</w>
此 后</w>
k el
职 权
统 治</w>
职权 范围</w>
长 期
sol ar</w>
off ering</w>
斯 达
台 湾</w>
ex tradition</w>
sign al</w>
每 日</w>
descri ption</w>
geor ge</w>
相当 于</w>
flexi bility</w>
t ons</w>
领 取</w>
仇 外</w>
an ge</w>
席 位</w>
volunte ers</w>
接 收</w>
hazard ous</w>
T he</w>
w as
projec ted</w>
陷 入</w>
香 港
pres ents</w>
m ous</w>
gr ants</w>
加 大</w>
h t
这 件</w>
graph y</w>
没 收</w>
有 点</w>
gain ed</w>
世 贸
根 源</w>
用 以</w>
绩 效</w>
查 阅</w>
A l</w>
领 空</w>
继 续
合 格</w>
不 妨</w>
侵 略</w>
sal v
bro ken</w>
照 料</w>
回 家</w>
原 来</w>
19 61</w>
neigh b
in cur
ver b
不 起</w>
ri o</w>
萨 尔
an o</w>
ir on</w>
解 除
ste re
主管 部门</w>
res ting</w>
ligh tly</w>
norm ally</w>
al bu
沙特 阿拉伯</w>
rec ur
1 23</w>
eth ics</w>
博物 馆</w>
rev .1</w>
head ed</w>
有效 性</w>
speak er</w>
h an</w>
星期 四</w>
re vi
re rs</w>
supple ment</w>
occa sion</w>
acces sion</w>
疑 问</w>
acc umul
sign ature</w>
alle vi
in human</w>
hun dre
意 外</w>
see ing</w>
atom ic</w>
贩 卖</w>
comp ul
k illing</w>
年 间</w>
l es
expo sure</w>
il ing</w>
lan ka</w>
查 询</w>
li fe
re struc
ven ues</w>
for ums</w>
afgh an</w>
行 事</w>
avo i
pro of</w>
rou te</w>
stron ger</w>
论 文</w>
oura ble</w>
dec ol
3 rd</w>
remo val</w>
han g</w>
第 八
清 除</w>
har m
ac t
d or
g ers</w>
f p</w>
法律 援助</w>
har ass
常 见</w>
moder n
地 區</w>
can adian</w>
报 纸</w>
t olerance</w>
procedur al</w>
biodi versity</w>
美 丽</w>
m p</w>
alle l</w>
之 二</w>
w are</w>
strugg le</w>
粮食 安全</w>
h ence</w>
标 准
war m</w>
re sta
es c
大 会
ar chi
参 照</w>
c .1</w>
Rev .1</w>
平 均
殖民 地</w>
compl ex
1 21</w>
索赔 人</w>
par allel</w>
cath ol
坦 桑
星期 二</w>
cr c</w>
the ore
非 殖民化</w>
撤 销</w>
饥 饿</w>
捐助 国</w>
res cu
co sta</w>
商 务</w>
grat eful</w>
女 子</w>
requ iring</w>
pl ate</w>
resta ur
c ars</w>
问 责</w>
s i</w>
199 0s</w>
mou th</w>
pr ince</w>
学 科</w>
a warded</w>
archit ecture</w>
世贸 组织</w>
degra ding</w>
dep ends</w>
定 罪</w>
g in</w>
ann ually</w>
创 造
hun ger</w>
govern or</w>
behavi or</w>
fil ms</w>
阐 明</w>
v ast</w>
此 次</w>
adequ ately</w>
C .1</w>
着 重</w>
黎 加</w>
r i</w>
宝 贵</w>
cen ts</w>
trans fers</w>
bi an</w>
stand ardi
g ur
男女 平等</w>
国际 标准</w>
尔 斯</w>
传 染
理 事</w>
颜 色</w>
一 词</w>
drin king</w>
不 结
s car
fil ed</w>
comm it</w>
n es</w>
reve aled</w>
华盛 顿</w>
est ate</w>
colon ial</w>
观 测</w>
prin t</w>
de v
l uc
se ats</w>
区域 合作</w>
定 为</w>
citiz en
加 纳</w>
监察 员</w>
bloc k</w>
citiz en</w>
见 到</w>
答 案</w>
vel i
proce ed</w>
朝鲜民主主义 人民共和国</w>
必 需</w>
techni que</w>
规 章</w>
ve ge
min ute</w>
palestin ians</w>
belon ging</w>
中非 共和国</w>
塞 内
arab ia</w>
地 图</w>
tan z
t ty</w>
in duc
sign ing</w>
re ts</w>
bo at</w>
干 旱</w>
hop es</w>
class es</w>
有 辱</w>
首 要</w>
军 备</w>
inju red</w>
radi ation</w>
f illing</w>
polic y
k it
z i
ad ult</w>
解 除</w>
差 别</w>
sto red</w>
mean ing
哥 斯达
真 是</w>
f ts</w>
dis placement</w>
本 法</w>
ma them
portu gal</w>
D A
s mar
哥斯达 黎加</w>
ri d</w>
aggres sion</w>
留 在</w>
塞内 加尔</w>
fall s</w>
bu t
发 生
股 票</w>
终 于</w>
ou red</w>
想 到</w>
st ars</w>
回 收</w>
miti gation</w>
ob ama</w>
2 .2</w>
na vi
clin ical</w>
m as
mr s.</w>
终 了</w>
代 码</w>
fo ot</w>
企 业
毕 业</w>
consolid ation</w>
regi stry</w>
ric a</w>
d am</w>
v alid</w>
m i</w>
特 网</w>
活 力</w>
neighbour ing</w>
长 时间</w>
noti fication</w>
pati ent</w>
医 学</w>
schem es</w>
a us
histor ic</w>
re alized</w>
温 室</w>
lu x
中 部</w>
decol onization</w>
at ar</w>
海 岸</w>
a part</w>
5 ,000</w>
解除 武装</w>
所 在
dis cre
k id
ster ing</w>
comm on
sta ke</w>
提 起</w>
lea ves</w>
封 锁</w>
安全 部队</w>
ri c</w>
re me
成 长</w>
十 五届</w>
星期 三</w>
out puts</w>
布 鲁
surve ys</w>
ecu ador</w>
份 额</w>
la h</w>
mo thers</w>
入 境</w>
乌 拉圭</w>
判 断</w>
scen e</w>
su it</w>
接 着</w>
cust ody</w>
咨询 服务</w>
分 离</w>
respon ded</w>
酒 店</w>
mani fe
常 规
extr a</w>
su m</w>
对 付</w>
lo an</w>
对 外</w>
d able</w>
设 定</w>
sign s</w>
M ar
wit ness</w>
cap ability</w>
优 化</w>
v als</w>
铭 记</w>
种 植</w>
slo v
employ ers</w>
explo sive</w>
comman der</w>
19 69</w>
电 台</w>
纪 律</w>
总 干事</w>
fall ing</w>
w is
放 射
con ve
ul timately</w>
sat ur
contem porary</w>
矛 盾</w>
u gu
明 确
s mu
. 8</w>
一 百
代 价</w>
伯 特</w>
标 题</w>
typ ically</w>
im per
办 理</w>
监 察</w>
commen ded</w>
辅 助</w>
ef s</w>
给 出</w>
f a</w>
appl ies</w>
库 存</w>
clo sing</w>
先 进</w>
k ill</w>
defin i
隔 离</w>
sor t</w>
de emed</w>
champi on
wat ers</w>
rene wed</w>
那 时</w>
发展 权</w>
德 里</w>
产 量</w>
am munition</w>
see ks</w>
reme dy</w>
社会 主义</w>
stri p</w>
预算 外</w>
hundre ds</w>
马 拉
ail ing</w>
常 会</w>
蒙 古</w>
包 容性</w>
after noon</w>
re action</w>
苏 联</w>
ad ults</w>
阿尔 巴
ough ly</w>
引 入</w>
ad ing</w>
C A
du pl
ed ly</w>
较 大</w>
s ar
所 有权</w>
临 床</w>
进 度</w>
习 俗</w>
on y</w>
老 人</w>
ro ma</w>
超 出</w>
liter ature</w>
宏 观
k er
第十 二
g ot
h ill</w>
adjust ments</w>
生产 总值</w>
1 28</w>
men tion</w>
mathem ati
ro t
简 报</w>
种 种</w>
o ting</w>
实 例</w>
因 特网</w>
facil itation</w>
is o
当事 方</w>
mon gol
d c</w>
大不 列颠</w>
船 舶</w>
10 00</w>
sub missions</w>
parame ters</w>
ric e</w>
发 给</w>
investig ated</w>
gar den</w>
d .
农 村
oper ative</w>
旅 费</w>
expres sing</w>
ca using</w>
cli ent</w>
乍 得</w>
li veli
re y</w>
纠 正</w>
g ul
consum ers</w>
专 题
m assive</w>
philos oph
认 证</w>
drin k</w>
代表 性</w>
u de</w>
日 常</w>
pe tro
citizen ship</w>
必要 措施</w>
另 有</w>
olymp ics</w>
c c</w>
今 日</w>
as e
布 尔</w>
均 衡</w>
招 募</w>
priv il
经验 教训</w>
约 束</w>
enti rely</w>
详 细
瓦 多</w>
纪 念
for th
unfortun ately</w>
做 好</w>
ro man</w>
candi date</w>
kaz akh
pro ve</w>
res or
la yer</w>
concep ts</w>
19 45</w>
化学 武器</w>
eli gible</w>
dep ending</w>
p ir
hr c</w>
dep end</w>
对 策</w>
f it
联 刚</w>
1 24</w>
demobil ization</w>
happ en</w>
land locked</w>
where as</w>
negoti ating</w>
胜 利</w>
斯 特
bl ing</w>
suff er</w>
第六 十
每 周</w>
输 入</w>
mil es</w>
该 法</w>
tu de</w>
M o
强 制</w>
t an</w>
gon na</w>
requ esting</w>
友 好</w>
排 放
detaine es</w>
prospec ts</w>
hol y</w>
土 著
zer o</w>
organiz ing</w>
不 安</w>
违 背</w>
风 格</w>
renew able</w>
inv asion</w>
gen tly</w>
trans formation</w>
第二 届</w>
共 产
金融 危机</w>
trans action</w>
迹 象</w>
那 儿</w>
沿 海</w>
vill ages</w>
bro wn</w>
up gra
in o</w>
contr ast</w>
fam ili
人 生</w>
happ iness</w>
迫 使</w>
作出 贡献</w>
unc it
迫 切
A b
clo thes</w>
疟 疾</w>
生 活
sub stitu
measu rement</w>
me rely</w>
公 认</w>
revie wing</w>
gui ded</w>
斯 科</w>
得 成功</w>
客 观</w>
se ized</w>
ex changes</w>
expe di
4 th</w>
13 2</w>
占 领
instruc tions</w>
大西 洋</w>
el and</w>
贫 困
高等 教育</w>
辐 射</w>
detec tion</w>
difficul ty</w>
建筑 物</w>
成 熟</w>
dec entr
尼 加拉
ac id</w>
c asting</w>
月 底</w>
球 队</w>
犹 太
heav ily</w>
学 者</w>
b .
种 类</w>
尼加拉 瓜</w>
mi xed</w>
tur ning</w>
at or
抗 议</w>
r ation
pr u
bi ennial</w>
公 报</w>
ex i
vis ual</w>
link ages</w>
kazakh stan</w>
A r
dr .</w>
sho wing</w>
tanz ania</w>
乌 兹
head ing</w>
not ably</w>
atlan tic</w>
ph ar
rel ate</w>
萨尔 瓦多</w>
模 拟</w>
pi re</w>
转 交</w>
小 说</w>
el derly</w>
necess arily</w>
persist ent</w>
pat ro
pr o</w>
cho sen</w>
亚太 经
eg al</w>
多 哈</w>
乌兹 别
earthqu ake</w>
car ds</w>
p ho
th i
排 斥</w>
wh en
chri st
uncit ral</w>
ur ugu
e ur
in quiry</w>
tru sted</w>
权 益</w>
哈萨 克斯坦</w>
儿 童
del ays</w>
5 th</w>
law yer</w>
獲 得</w>
学 术</w>
pres sed</w>
迄今 为止</w>
ac cess
队 伍</w>
coll ect</w>
be ings</w>
毫 米</w>
常规 武器</w>
不 错</w>
a b</w>
in stances</w>
trop ical</w>
organis ation</w>
发 达</w>
phot ograph
pu tting</w>
c ular</w>
ef ul
f ab
mic hael</w>
从 来</w>
al d</w>
no tic
草 坪</w>
权 人</w>
pre judic
网 页</w>
制 约</w>
x x
物 种</w>
顺 利</w>
发 了</w>
ordin ance</w>
p ages</w>
含 量</w>
co ali
机 器</w>
15 5</w>
更 改</w>
发 动</w>
pu s</w>
sy ner
一致 性</w>
摆 脱</w>
on e
高 效</w>
zh ou</w>
ed onia</w>
去 世</w>
添 加</w>
invol ves</w>
dat ory</w>
内部 监督</w>
pro min
13 8</w>
15 3</w>
修 建</w>
kno ws</w>
支 持
is s
水 资源</w>
想 象</w>
C P
v is</w>
distin ction</w>
削 弱</w>
备 金</w>
第二 条</w>
uni ons</w>
cen sus</w>
plan et</w>
a po
一 種</w>
n es
自 决</w>
armen ia</w>
festi val</w>
p o</w>
支 柱</w>
am i</w>
ac cred
土 壤</w>
lin gu
trou ble</w>
ak es</w>
pi ec
恐怖 分子</w>
no w
enc ing</w>
杀 伤</w>
mal aria</w>
鼓 舞</w>
对 方</w>
recei pt</w>
文 学</w>
compul sory</w>
cul tures</w>
ous ness</w>
19 50</w>
custom ary</w>
为 何</w>
vi sible</w>
u t</w>
liter acy</w>
ge dly</w>
船 只</w>
re placement</w>
典 型</w>
咨 商</w>
o ec
inc enti
con stan
tor ies</w>
E P</w>
关 押</w>
tex ts</w>
s bi</w>
f at
信 通</w>
stri ke</w>
ou se</w>
expec tations</w>
保 安</w>
钻 石</w>
指 挥</w>
倡 导</w>
基本 上</w>
www. un.org</w>
gradu ate</w>
再 生
opini ons</w>
advan ces</w>
b y
设 有</w>
enti als</w>
fac tory</w>
運 動
13 4</w>
sec t</w>
价值 观</w>
一 人</w>
xenopho bia</w>
申请 人</w>
登记 册</w>
强 有力</w>
脱 离</w>
环境 保护</w>
r on</w>
the red</w>
altern atives</w>
负 有</w>
consult ants</w>
er ror</w>
家 属</w>
富 有</w>
chris tian</w>
harm ful</w>
基督 教</w>
re ver
inter view</w>
bul g
under lying</w>
意 图</w>
dimen sions</w>
ro oms</w>
el se
when ever</w>
v ar
同 等</w>
tru ly</w>
alle gedly</w>
品 牌</w>
增长 率</w>
writ er</w>
ori entation</w>
si l</w>
al co
wa stes</w>
dimen sion</w>
mar k
单 元</w>
econom ics</w>
charac ters</w>
in no
后 面</w>
一 贯</w>
respon ding</w>
不 必</w>
E n
缓 慢</w>
退 出</w>
expen sive</w>
plac ing</w>
s n
pe ti
prev al
12 4
保 加
1 26</w>
ad o</w>
独立 性</w>
恰 当</w>
ph r
stop ped</w>
continu ation</w>
ti vation</w>
hel ps</w>
han dle</w>
排放 量</w>
offic ially</w>
s lightly</w>
d ating</w>
gro wn</w>
dro pped</w>
constitu ted</w>
magaz ine</w>
ri d
inv ite</w>
条 文</w>
ge o
inter active</w>
会 晤</w>
努 力
要 是</w>
cei ved</w>
anticip ated</w>
谢 谢</w>
几内 亚
vil le</w>
arab ic</w>
源 于</w>
siz ed</w>
minister ing</w>
n ice</w>
con junction</w>
验 证</w>
her self</w>
ti me
compati ble</w>
13 5</w>
harass ment</w>
descri be</w>
哪 里</w>
f ly</w>
f .</w>
前 面</w>
jud g
tribun als</w>
analy tical</w>
近 期</w>
绑 架</w>
判 例</w>
provi ders</w>
真 相</w>
玻利 维亚</w>
repatri ation</w>
p y
id a</w>
fru it</w>
营 地</w>
市 民</w>
pursu ed</w>
斯洛伐 克</w>
mis sed</w>
如 同</w>
o da</w>
do ha</w>
in ser
wi d
顾 客</w>
此 事</w>
im ages</w>
不 了</w>
10 %</w>
参与 者</w>
ci a</w>
流 行
被 捕</w>
assess ing</w>
学 位</w>
ti le</w>
in equality</w>
jud gement</w>
国家 元首</w>
ad ministering</w>
v acc
stat u
ke t
genu ine</w>
coll ap
皇 家</w>
sh r
spo kes
配 偶</w>
dr ought</w>
on to</w>
提高 认识</w>
dist ur
an ger</w>
p tions</w>
quanti ty</w>
根 本
捷 克共和国</w>
ch er</w>
attitu de</w>
un to</w>
necess ity</w>
memoran dum</w>
联合国 大会</w>
dis play</w>
通 货
t our</w>
incenti ves</w>
en or
净 额</w>
pris ed</w>
evalu ations</w>
tic ul
责 任
尽 早</w>
宏观 经济</w>
3 .1</w>
管理 系统</w>
di vor
tuni sia</w>
面 向</w>
prof ile</w>
色 情</w>
吉 尔
lim itations</w>
stere ot
九 条</w>
ho sted</w>
十 届</w>
1 27</w>
薪 酬</w>
es cap</w>
accoun table</w>
论 性</w>
局 面</w>
obser ve</w>
per mitted</w>
cont acts</w>
成 分</w>
出 現</w>
simul tan
ben ch
百 万</w>
侧 重于</w>
灭 绝</w>
am ed</w>
家 族</w>
restruc turing</w>
op en
su red</w>
不 仅仅</w>
马 上</w>
世 紀</w>
对 抗</w>
gre w</w>
全 权</w>
行政 部门</w>
du m
应用 程序</w>
围 绕</w>
urugu ay</w>
脆 弱
fav or
def enders</w>
喀 麦
direc tors</w>
else where</w>
refl ecting</w>
th om
本 书</w>
其 次</w>
尽 量</w>
terror ists</w>
in habit
gui ding</w>
be d
hung ary</w>
co ffe
人 才</w>
m l</w>
environ mentally</w>
s wi
六 条</w>
exc essive</w>
否 认</w>
sol e</w>
ish ments</w>
當 時</w>
off en
感 到
s ons</w>
as sumed</w>
re ferences</w>
cli ents</w>
19 63</w>
f ail</w>
仪 式</w>
pregn ancy</w>
使用 者</w>
选 定</w>
也 门</w>
全球 性</w>
cri tic
化 合物</w>
消 灭</w>
影 片</w>
md gs</w>
禁 运</w>
gh ana</w>
和 谐</w>
en g</w>
introduc ing</w>
演 出</w>
离 职</w>
多 边
facilit ated</w>
决策 者</w>
scre en</w>
og le</w>
certain ty</w>
技 巧</w>
19 51</w>
修 复</w>
19 68</w>
dis charge</w>
清 理</w>
tri p</w>
su res</w>
脆弱 性</w>
ar c
z en</w>
姆 斯</w>
住 宅</w>
运 营</w>
运 动
af raid</w>
干 涉</w>
resp ected</w>
ven ture</w>
开 办</w>
一 架</w>
夏 季</w>
b id
互 相</w>
卡塔 尔</w>
pregn ant</w>
pr on
失 望</w>
罚 款</w>
cal end
tan gible</w>
形 态</w>
pe ter</w>
未 成年人</w>
1 29</w>
man datory</w>
uz be
frau d</w>
hospit als</w>
for get</w>
着 重
疫 苗</w>
逻 辑</w>
对 手</w>
secu red</w>
短 缺</w>
li abilities</w>
言 论
本 来</w>
newspap er</w>
受 益
言论 自由</w>
健 康
medi ation</w>
measu red</w>
extra budgetary</w>
商 店</w>
cathol ic</w>
ac u
st .</w>
b ou
ch er
国内 法</w>
函 数</w>
m ation</w>
lead s</w>
in et</w>
amoun ted</w>
害 怕</w>
昨 天</w>
sen egal</w>
f loo
por tion</w>
clear ance</w>
sb sta</w>
comm only</w>
in dis
que en</w>
应 由</w>
联邦 政府</w>
senten ced</w>
X X
委 托</w>
124 ;</w>
&# 124;</w>
时 至</w>
ar agu
I D
英 里</w>
三 条</w>
juven ile</w>
民 兵</w>
ari o</w>
污染 物</w>
tr ac
极 其</w>
强制 性</w>
牙 买
指挥 官</w>
会 费</w>
新 兴</w>
增 多</w>
刚 刚</w>
人民 政府</w>
编 列</w>
the ast</w>
roman ia</w>
是 不是</w>
平 等
wor st</w>
question nai
生 成</w>
人 为</w>
普 及</w>
整 合</w>
尔 德</w>
带 有</w>
塔 吉
再生 能源</w>
elec tro
fe ed
电子 邮件</w>
stric tly</w>
sim pli
免 疫</w>
技术 转让</w>
无论 是</w>
r ant</w>
通 用</w>
喀麦 隆</w>
结 论性</w>
无 线
论 述</w>
so red</w>
ombud sman</w>
mit h</w>
ain s</w>
15 40</w>
be sides</w>
prosper ity</w>
13 3</w>
care ful</w>
trans mit</w>
灵 活性</w>
初 次</w>
相 关
ni gh
cred entials</w>
原 理</w>
ev olution</w>
亚太经 社会</w>
转 向</w>
gene tic</w>
p aul</w>
西 岸</w>
机 遇</w>
得 不到</w>
re pu
accommod ation</w>
absolu te</w>
寿 命</w>
im ports</w>
熟 悉</w>
tax es</w>
复 苏</w>
立 陶
w ine</w>
survi val</w>
vac ancy</w>
reti rement</w>
vie t
签 证</w>
天 主教</w>
瓦 尔</w>
包 容</w>
p ping</w>
层 次</w>
18 2</w>
ati zation</w>
certi fication</w>
关 税</w>
ici de</w>
lib yan</w>
w fp</w>
cir cu
k ill
漂 亮</w>
smu gg
forth coming</w>
fla g</w>
小 企业</w>
e z</w>
acceler ate</w>
we red</w>
main land</w>
毛里 求
多 么</w>
g ated</w>
n as
as sume</w>
pos sibly</w>
dri ver</w>
mur der</w>
fi red</w>
exac tly</w>
生 长</w>
政府 首脑</w>
玩 家</w>
填 补</w>
半 年</w>
rati fy</w>
gr y</w>
spo t</w>
和平 利用</w>
them es</w>
ol i
manufac ture</w>
mal i</w>
en a</w>
retur ns</w>
dec lined</w>
fil es</w>
inter ference</w>
depend ence</w>
att or
easi er</w>
pay ing</w>
培训 班</w>
missi le</w>
旅游 业</w>
te a</w>
ser ves</w>
gen cies</w>
部 落</w>
it ly</w>
reg ret
il es</w>
十 三届</w>
coffe e</w>
七 条</w>
macro economic</w>
结果 表明</w>
一 块</w>
li c</w>
阿尔巴 尼亚</w>
l l
trans mitting</w>
threat ened</w>
影 响
bir d</w>
开 设</w>
起 到</w>
nic aragu
老 板</w>
迫切 需要</w>
y st
言 论</w>
不 用</w>
fashi on</w>
v ess
mo z
下 次</w>
di verse</w>
我 谨</w>
aban don
广 播
手 机</w>
sil ver</w>
cere mony</w>
b ay</w>
裁 谈会</w>
tri als</w>
教 会</w>
per taining</w>
olo gies</w>
遊 戲</w>
un known</w>
inte resting</w>
机 械</w>
國 際</w>
labor atory</w>
op posed</w>
ti t
通货 膨
视 性</w>
di stric
保加 利亚</w>
并 于</w>
a qu
被 占
被占 领土</w>
incorpor ate</w>
ag eing</w>
债 权人</w>
影响 力</w>
stor ies</w>
风 暴</w>
coali tion</w>
恐 惧</w>
敌 人</w>
太 阳
no ise</w>
vess els</w>
no vel</w>
inf ec
syri a</w>
19 48</w>
合法 性</w>
sa u</w>
六 个</w>
fav ourable</w>
commun ist</w>
algorith m</w>
19 66</w>
20 %</w>
西 藏</w>
in ations</w>
强 度</w>
tre at</w>
常 规</w>
h k
冲 击</w>
in puts</w>
共同 努力</w>
h as
爱 情</w>
fre ely</w>
出 口
歧 视性</w>
激 励</w>
会 见</w>
d r</w>
人权 宣言</w>
chann els</w>
the at
P ro
ru b
cohe rent</w>
调查 结果</w>
vi c</w>
演 员</w>
b ought</w>
6 th</w>
小 姐</w>
indic ator</w>
ol ing</w>
ow ners</w>
ke y
事 物</w>
deleg ates</w>
sci ences</w>
约 翰
objec tion</w>
emphasiz e</w>
contr actual</w>
ad ding</w>
比 賽</w>
承 受</w>
工作 文件</w>
progres sive</w>
piec es</w>
毛里求 斯</w>
17 0</w>
H RC</w>
cau ght</w>
买 卖</w>
仔 细</w>
rev it
过 于</w>
il ed</w>
pris ons</w>
is c
2. 3</w>
a er
oec d</w>
jam es</w>
I II</w>
债 券</w>
比 绍</w>
cap it
pl ed</w>
m o</w>
除 外</w>
an cies</w>
几 天</w>
据 说</w>
tou ch</w>
ten sion</w>
commun ic
14 1</w>
obvi ous</w>
repe ated</w>
rep air</w>
c lock</w>
fo rese
incur red</w>
tu s</w>
一 周</w>
事 宜</w>
能 源
家庭 成员</w>
inhabit ants</w>
非 国家</w>
指 称</w>
s aving</w>
健 全</w>
issu ance</w>
br and</w>
re marks</w>
pos session</w>
con du
海 军</w>
harmon ization</w>
repl ies</w>
rel ates</w>
distric ts</w>
复 原</w>
decre ased</w>
收 购</w>
spon sored</w>
musli m</w>
指 令</w>
flow ers</w>
初 期</w>
je sus</w>
储 备</w>
50 %</w>
serv ants</w>
S u
计划 生育</w>
地 产</w>
em br
ar ise</w>
q atar</w>
分 裂</w>
cat ch</w>
预 定</w>
gener ations</w>
formul ate</w>
fal se</w>
experi ment</w>
该 部</w>
sud den
S T</w>
pri ze</w>
耶 稣</w>
rein for
w ages</w>
oper ated</w>
mu tually</w>
ba h
计 量</w>
苏 丹
合 成</w>
modi fied</w>
spec tr
a. m</w>
salv ador</w>
保 密</w>
compu ters</w>
telecommun ications</w>
中 文</w>
th ough
manufac tu
九 届</w>
司 长</w>
ch ad</w>
meaning ful</w>
employe e</w>
ch airs</w>
vir us</w>
concentr ation</w>
剩 余</w>
mo bility</w>
consequ ence</w>
最 多</w>
牙买 加</w>
s can
原 始</w>
de plo
satisfac tory</w>
o v
servic ing</w>
十二 届</w>
pri ori
v able</w>
calend ar</w>
sk i</w>
hor se</w>
纽 约
生 计</w>
援 引</w>
不 当</w>
无 效</w>
n ative</w>
创 作</w>
om a</w>
1 31</w>
l ec
ic an</w>
竞 赛</w>
preser ve</w>
sun day</w>
定居 点</w>
目 录</w>
ti us</w>
c t
审 查
编 号</w>
ste in</w>
electr ical</w>
13 6</w>
ve sted</w>
试 点</w>
ill ance</w>
有 趣</w>
最 早</w>
slow ly</w>
restor ation</w>
requ is
sh ad
咖 啡</w>
ab st
shel ter</w>
资 金
z am
inten sive</w>
argu ment</w>
犯罪 行为</w>
sudden ly</w>
prescri bed</w>
礼 物</w>
per forming</w>
免 遭</w>
ta ji
难民 营</w>
斯洛 文
优 惠</w>
surve illance</w>
assign ment</w>
t ant</w>
exclu sion</w>
上 次</w>
we igh
划 分</w>
cab inet</w>
satis fied</w>
sr .
免 受</w>
计算 机
姓 名</w>
referen dum</w>
司法 部</w>
梦 想</w>
火 箭</w>
超 越</w>
童 工</w>
记 忆</w>
discipl ine</w>
mon tre
一 边</w>
1. 3</w>
村 庄</w>
our selves</w>
帝 国</w>
an i</w>
agu es</w>
susp ected</w>
主 持
o xi
第六 条</w>
电 信</w>
declar ations</w>
较 为</w>
mil k</w>
foc uses</w>
ther ing</w>
re public
mi x
其 后</w>
当 代</w>
阿 卜
asp ir
散 发</w>
ren der</w>
爸 爸</w>
the tic</w>
代 替</w>
gr o</w>
surr ounding</w>
de posi
ses sional</w>
propor tion
截 止</w>
组 织
municip alities</w>
为 重要</w>
利 尔</w>
h o</w>
cont am
忘 记</w>
fin ed</w>
doc tors</w>
sub paragraph</w>
指导 方针</w>
ma uri
以色 列
术 语</w>
16 9</w>
16 6</w>
d res
SR .
领 土
t s
t ap
气 氛</w>
详 情</w>
农村 妇女</w>
oce ans</w>
a di
har v
sh op
找 出</w>
sou l</w>
consist ently</w>
boli via</w>
7 th</w>
C on
信 用
ow ner</w>
en coun
视 频</w>
albu m</w>
administr ator</w>
可 行
抵 达</w>
人权 法</w>
ge f</w>
14 5</w>
re n</w>
cat aly
广 大</w>
城 镇</w>
li ke
beau ty</w>
ass a
h .
wan g</w>
3 .2</w>
音 乐
met res</w>
多 名</w>
com prising</w>
reduc tions</w>
核 实</w>
风 险
难 以
网 络
辩 护</w>
b right</w>
r c</w>
看 着</w>
ex posed</w>
claim ant</w>
bl e
走 向</w>
一 句</w>
ter ri
深 刻</w>
像 是</w>
mongol ia</w>
在 此
路 线</w>
诉 讼
propos e</w>
飓 风</w>
fa x</w>
compar ative</w>
导 言</w>
所 用</w>
衰 退</w>
wor se</w>
14 2</w>
施 加</w>
人 均</w>
合 组织</w>
fe at
willi am</w>
occa sions</w>
run s</w>
ep iso
autom atic</w>
维 尔</w>
下 跌</w>
on ing</w>
世界 人权宣言</w>
银 行
局 长</w>
eur o</w>
缩 小</w>
远 远</w>
权 限</w>
暂 行</w>
命 运</w>
p ush
雖 然</w>
第三 方</w>
gn ess</w>
soci alist</w>
养 护</w>
次 数</w>
christ mas</w>
shor tly</w>
vis itors</w>
depri ved</w>
mil iti
自 主</w>
並 且</w>
前 进</w>
common wealth</w>
li thu
occur s</w>
distin ct</w>
届 会</w>
fl or
bor ro
16 2</w>
wil d</w>
包 装</w>
d il
证 件</w>
ple asu
知 情</w>
uni form</w>
成 人</w>
特 权</w>
最 低
inf ection</w>
din ner</w>
3 8
bro ke</w>
suffici ently</w>
奥 斯
z im
成 年</w>
Cor r.1</w>
世界 卫生组织</w>
appreci ate</w>
缴 纳</w>
l ady</w>
报 酬</w>
几内亚 比绍</w>
电 力</w>
提 前</w>
地 理
stra ight</w>
手 中</w>
y ah</w>
cor r.1</w>
置 于</w>
波 动</w>
nat ur
生产 力</w>
con tain
R e
la stly</w>
美 好</w>
emer ged</w>
显 得</w>
si ting</w>
阶 层</w>
花 费</w>
t ag
屠 杀</w>
asi de</w>
节 省</w>
fl ying</w>
prosecu tors</w>
边 缘</w>
实 物</w>
form ally</w>
复 杂
com pos
defic i
formul a</w>
j um
susp en
下 述</w>
montre al</w>
stu dying</w>
y ang</w>
13 9</w>
分 割</w>
im f</w>
替 代
审查 会议</w>
yel low</w>
f ccc</w>
mot or</w>
无 疑</w>
家 园</w>
priori tiz
on a</w>
v es
颁 发</w>
失业 率</w>
senten ces</w>
dis appearance</w>
n i</w>
u ght</w>
ten ed</w>
交 流
弱 势
ren dered</w>
es cape</w>
同 次</w>
cre ative</w>
地 说</w>
总 共</w>
shou l
calcul ated</w>
u a</w>
y o
直 升
管理 层</w>
国际 劳工
比 克</w>
comb at
发 表
bis sau</w>
attitu des</w>
打 破</w>
dam aged</w>
遭 遇</w>
不 罚</w>
fe e</w>
su peri
中 國</w>
w ou
2 ,000</w>
弱势 群体</w>
家 长</w>
青 年人</w>
CC C</w>
两 人</w>
proce eds</w>
ul sion</w>
re la
多 米
gr ass</w>
纳 米
hor iz
bir ds</w>
s y</w>
re store</w>
履 行
child hood</w>
安全 部门</w>
confi gur
there of</w>
b all
conser v
发 挥
establish ments</w>
liqu id</w>
part ly</w>
enhan cement</w>
enti ally</w>
fe wer</w>
z y</w>
谨 慎</w>
enabl ed</w>
sit ting</w>
admis sible</w>
is ation</w>
一 段时间</w>
19 64</w>
dis co
草 稿</w>
vo y</w>
slo ven
mobil ize</w>
moun tains</w>
ar a</w>
th ou</w>
大 众</w>
un like</w>
si ck</w>
吉尔 吉
hel ic
d al</w>
cou ldn</w>
自由 化</w>
所 示</w>
del ayed</w>
达 成
mess ages</w>
pro cur
associ ate</w>
困 境</w>
far m</w>
同 時</w>
tow ns</w>
susp ended</w>
audi ence</w>
e ously</w>
蒙特 利尔</w>
收 费</w>
in ated</w>
发 送</w>
occup ational</w>
cy cl
分 开</w>
hur ric
appoint ments</w>
classi fied</w>
13 7</w>
会 员</w>
支 配</w>
经济 委员会</w>
核 试验</w>
亚 太</w>
conf isc
ge l</w>
天 然
C om
targe ting</w>
f c</w>
标准 化</w>
ha ven</w>
sam ple</w>
发挥 作用</w>
fl ag
un lawful</w>
红 色</w>
小 组
me te
k g</w>
影 響</w>
g ab
组 建</w>
竞 选</w>
rescu e</w>
尔 多
存 款</w>
pro mul
对 性</w>
一 片</w>
激 烈</w>
完 美</w>
radi o
r are</w>
摧 毁</w>
n is</w>
curricul um</w>
ar y
歐 洲</w>
measu ring</w>
F CCC</w>
pic k</w>
冻 结</w>
h il
歷 史</w>
w illin
克 尔</w>
pe ak</w>
sett led</w>
这 笔</w>
执 法
l as
运 送</w>
willin gness</w>
sal aries</w>
character ized</w>
competi tiveness</w>
之 間</w>
occup ying</w>
s ad
筹备 工作</w>
ye ah</w>
社 會</w>
应 为</w>
感 受</w>
基金 组织</w>
v .
adoles cents</w>
transl ated</w>
f on
ha i
stabil ization</w>
experi mental</w>
y emen</w>
ful fil
中 等</w>
presid ents</w>
ill a</w>
exi sted</w>
appro ve</w>
de gre
有 待</w>
多 项</w>
赞 比亚</w>
attribu table</w>
ai re</w>
2 20</w>
严 格
subsi dies</w>
ed ge</w>
muni tions</w>
發 展</w>
nicaragu a</w>
转 换</w>
演 讲</w>
mauri tius</w>
bre ach</w>
特 使</w>
z o
convic tion</w>
程 序
完 全
巴 塞尔</w>
br ings</w>
阿 布
领土 完整</w>
14 3</w>
搜 索</w>
camer oon</w>
巴 拿
奥 林匹
多米 尼
六 个月</w>
pre tty</w>
d ay
印 刷</w>
分 段</w>
判 处</w>
mil it
出 色</w>
早 上</w>
elimin ating</w>
bro thers</w>
活 跃</w>
到 底</w>
stereot yp
n lb</w>
bo l</w>
基 会</w>
dis aggreg
智 慧</w>
addres ses</w>
三 次</w>
三 十
produc ers</w>
不 愿</w>
ro ots</w>
联合国 秘书处</w>
comm em
at er
corpor ations</w>
维 护
se ve
字 母</w>
马 其
受 害</w>
employ er</w>
add .
莫 桑
jama ica</w>
离 婚</w>
w ol
like wise</w>
liber ation</w>
奖 励</w>
19 65</w>
deposi t</w>
enor mous</w>
署 长</w>
之 上</w>
fir mly</w>
us d</w>
任 用</w>
olo g
e fin
argu ed</w>
lo ts</w>
架 构</w>
目 的
补 助
理 念</w>
con vers
覆 盖
符 合
f an</w>
下 放</w>
申 明</w>
out line</w>
冠 军</w>
a str
prohi bi
rul ing</w>
ten e
mom en
ac ute</w>
repl ied</w>
convic ted</w>
poten tially</w>
bor ne</w>
analy ses</w>
土 地
gu y</w>
complex ity</w>
ang el
s now</w>
x es</w>
condu cive</w>
bu l</w>
rec all</w>
i de</w>
d h
开 采</w>
vir tu
helic op
休 息</w>
sub scri
elabor ation</w>
at ories</w>
追 究</w>
o sis</w>
付 出</w>
o th
服务 器</w>
fa ster</w>
pre c
地 中
CO N
e ating</w>
ab uses</w>
无 害</w>
degre es</w>
di ver
不 足以</w>
宇 宙</w>
dec ent</w>
penal ties</w>
momen tum</w>
clari fication</w>
benefici aries</w>
pass ing</w>
渴 望</w>
巡 逻</w>
l as</w>
ó n</w>
引 擎</w>
repe at
enjo yed</w>
uzbe kistan</w>
bo ards</w>
sel ect</w>
黑 山</w>
14 4</w>
一 生</w>
comple ment</w>
皮 肤</w>
假 如</w>
de als</w>
联合国 总部</w>
麻 烦</w>
fire arms</w>
con version</w>
纪 录</w>
retur ning</w>
ide al</w>
refer ring</w>
仇 恨</w>
p as
必 然</w>
达成 协议</w>
代 理
出 发</w>
coun c
部 件</w>
inter face</w>
非 正规</w>
or ally</w>
de ple
跨 界</w>
human s</w>
extra ordinary</w>
val ley</w>
北 方</w>
广 场</w>
圆 桌
im pose</w>
organis ations</w>
ak ia</w>
驱 动</w>
erad icate</w>
re mun
fore ign
o zone</w>
ch a
shor e</w>
干 扰</w>
divi sions</w>
第十 四条</w>
圆桌 会议</w>
tow n
ang le</w>
3 50</w>
an swe
着重 指出</w>
重 组</w>
发 明</w>
sco red</w>
mon tene
白 色</w>
2 35</w>
联 黎</w>
中 非</w>
自 行</w>
vi siting</w>
2. 4</w>
er t</w>
mini stered</w>
15 7</w>
两 位</w>
ip sas</w>
inter medi
suppli ers</w>
feed back</w>
s ar</w>
数 学</w>
一 类</w>
real istic</w>
co o
振 兴</w>
indic ating</w>
main stream</w>
bri efin
組 織</w>
威 廉</w>
seve rely</w>
cap tain</w>
work er</w>
ben e
ste ering</w>
sol ven
莫桑 比克</w>
f s</w>
照 会</w>
briefin gs</w>
撤 回</w>
s core</w>
ar m
19 58</w>
徒 刑</w>
盟 约</w>
浓 度</w>
之 际</w>
法 索</w>
s mith</w>
prin ting</w>
不结 盟
不结盟 运动</w>
intensi fy</w>
e able</w>
inju ries</w>
ro bert</w>
印 象</w>
est s</w>
direc torate</w>
国际劳工 组织</w>
applic ant</w>
magne tic</w>
em b
stock pil
re tained</w>
tion ers</w>
权 能</w>
credi bility</w>
enti eth</w>
采 纳</w>
or ph
联 塞</w>
招 聘</w>
passeng ers</w>
传 真</w>
不 好</w>
conven ing</w>
ad ministered</w>
各 种
tw entieth</w>
打 电话</w>
smo oth</w>
la m</w>
津 巴布
preven ted</w>
h ate</w>
ir anian</w>
me at</w>
dis par
vic tory</w>
utili zed</w>
acqui re</w>
appropri ation</w>
ho ods</w>
le e</w>
S A
低 收入</w>
consi sting</w>
立陶 宛</w>
即 便</w>
ran k</w>
dissemin ate</w>
analy zed</w>
---- ----
fu sion</w>
addi tionally</w>
tri g
s able</w>
CR P
DA W</w>
联合国 环境
联合国环境 规划署</w>
ent ations</w>
answe red</w>
章 程</w>
路 上</w>
am az
sugges tion</w>
je an</w>
9 th</w>
mo tiv
可 怕</w>
integr ating</w>
car go</w>
prejudic e</w>
CE DAW</w>
f ed</w>
考 察</w>
第三 届</w>
阵 线</w>
許 多</w>
范 畴</w>
Add .
coun selling</w>
14 7</w>
han ded</w>
bran ches</w>
海 事</w>
14 6</w>
15 6</w>
prof its</w>
动 性</w>
narco tic</w>
工业 化</w>
救 助</w>
en shr
construc ted</w>
奠 定</w>
大 力</w>
ce ase</w>
separ ated</w>
spar e</w>
fel low</w>
开 列</w>
pre p
福 祉</w>
typ ical</w>
des cent</w>
必 不可
ap ple</w>
核 能</w>
已 經</w>
lo g</w>
经 合组织</w>
撤 出</w>
shar p</w>
ser ver</w>
本 着</w>
rein force</w>
预防 性</w>
作 战</w>
三 分之一</w>
il li
smar t</w>
五 条</w>
煽 动</w>
事务 处</w>
bac ter
引 力</w>
扮 演</w>
不 受</w>
4 .1</w>
将 军</w>
保 罗</w>
s u</w>
j ack</w>
切 实
红十 字
hol e</w>
contr actors</w>
手 续</w>
inci dence</w>
b in</w>
ap parent</w>
ky r
log is
bas el</w>
atten dance</w>
驳 回</w>
正 当</w>
emer gencies</w>
力 度</w>
ric k</w>
欧洲 委员会</w>
准 入</w>
suspen sion</w>
ob taining</w>
要 点</w>
这 家</w>
see kers</w>
it ative</w>
bo ss</w>
特 色</w>
一 代</w>
紧 迫</w>
感 情</w>
admis sibility</w>
發 生</w>
津巴布 韦</w>
抓 住</w>
序 言</w>
宣 称</w>
取 得成功</w>
destin ation</w>
accoun ted</w>
15 1</w>
分 担</w>
ar i</w>
sup pression</w>
appear ances</w>
d ress</w>
反对 派</w>
dis advant
attemp ted</w>
解 放</w>
privil eg
regim es</w>
du tch</w>
coura ge</w>
parti ally</w>
蛋 白</w>
char les</w>
空 间
斯洛文 尼亚</w>
contr actor</w>
吉尔吉 斯
descri bes</w>
含 义</w>
broad cast</w>
理 性</w>
friend ship</w>
tr a</w>
accompl ishments</w>
mo sco
differen ti
spon sor
ce ase
dead line</w>
promis ed</w>
em pire</w>
cl am
ec ological</w>
说 道</w>
动 作</w>
乘 客</w>
ky o</w>
sla very</w>
safegu ard</w>
exce ed</w>
week ly</w>
adverti sing</w>
引 导</w>
moun t</w>
us al</w>
frequ ent</w>
f di</w>
爆炸 物</w>
public ly</w>
频 率</w>
b al</w>
slov akia</w>
残疾 儿童</w>
sp ect</w>
gener ating</w>
pl astic</w>
补助 金</w>
lim itation</w>
termin ation</w>
几 次</w>
equip ped</w>
注 意
ji ang</w>
beg ins</w>
consul t</w>
j a
ne gl
fel low
延 迟</w>
刑事 法庭</w>
ul timate</w>
副 本</w>
某 一</w>
力 求</w>
in ner</w>
此 前</w>
ur a</w>
ff s</w>
fe ed</w>
as king</w>
心 里</w>
学 术
自 动
ti bet</w>
糟 糕</w>
en comp
phar mac
ship ping</w>
em an</w>
dis closure</w>
bri d
regul ated</w>
斯 堡</w>
sw iss</w>
o a</w>
lo gical</w>
高 质量</w>
人 事</w>
bir th
arri val</w>
之 日起</w>
fu n</w>
問 題</w>
son gs</w>
liber alization</w>
契 约</w>
attr act</w>
cro ps</w>
kyr gy
生 涯</w>
罗 姆
再 度</w>
re par
y cl
f ate</w>
re tain</w>
ex cess</w>
基本 权利</w>
教 学
dom ain</w>
中 美洲</w>
in he
名 为</w>
em ission</w>
谈 话</w>
两 者</w>
卫生 部</w>
文 职人员</w>
L e
in struction</w>
少 女</w>
必不可 少</w>
身 份
system atically</w>
re fra
pleasu re</w>
治 安</w>
exp ulsion</w>
ch aired</w>
贸易 组织</w>
gra ph</w>
tow er</w>
使 命</w>
mosco w</w>
些 时候</w>
holid ay</w>
t .</w>
bulg aria</w>
学 率</w>
提 倡</w>
fe m</w>
pres sing</w>
fore stry</w>
经济 危机</w>
目的 地</w>
怎 么样</w>
w ron
tem por
y n
co des</w>
19 62</w>
15 2</w>
recor ding</w>
tin y</w>
ab duc
欺 诈</w>
execu ted</w>
转 化</w>
green house</w>
ho l</w>
风险 管理</w>
愉 快</w>
設 計</w>
logis tical</w>
comple mentary</w>
kin a</w>
赠 款</w>
main tains</w>
cl er
书 面
ca st
docu mented</w>
ra w</w>
imper ative</w>
geograph ic</w>
作出 努力</w>
g m</w>
cease fire</w>
并 不
guil ty</w>
三 名</w>
an da</w>
一 辆</w>
值 得
vol ati
mechan ical</w>
stipul ated</w>
15 4</w>
布 基
诉 诸</w>
in tim
exclu sive</w>
年 期</w>
大 幅度</w>
管 如此</w>
尽 管如此</w>
sel ec
in jec
under mine</w>
rev olu
off set</w>
smugg ling</w>
致 使</w>
tr acking</w>
美 国政府</w>
就 是
19 46</w>
combat ants</w>
2 10</w>
施 工</w>
me tr
c m</w>
地中 海</w>
支持 者</w>
抑 制</w>
塞 族</w>
停 火</w>
ten sions</w>
it ar</w>
适 用
gol den</w>
famili ar</w>
工程 师</w>
du rable</w>
增 至</w>
s k</w>
国 公司</w>
权 威</w>
a sts</w>
k am
fac to</w>
游 客</w>
pa th
eco system</w>
第七 条</w>
in spi
clari fy</w>
c ited</w>
性 虐待</w>
弱 势</w>
character istic</w>
纳 法索</w>
布基 纳法索</w>
缴 款</w>
各个 方面</w>
回 返</w>
ven d
are n</w>
比 额</w>
本 条</w>
cy pri
法律 文书</w>
谋 求</w>
prom pt</w>
resid ential</w>
separ ately</w>
环 保</w>
反 馈</w>
in ev
参 加
學 家</w>
judg ment</w>
兩 個</w>
乌兹别 克斯坦</w>
透 过</w>
adju sted</w>
和平 解决</w>
sen ate</w>
自 行
to bac
mol ec
tan k</w>
uni fil</w>
preser vation</w>
des k</w>
pursu it</w>
配 备</w>
英 尺</w>
p ush</w>
地 上</w>
通 道</w>
密 度</w>
癌 症</w>
办 公</w>
youn ger</w>
设 计
到 来</w>
montene gro</w>
accur acy</w>
东 耶路撒冷</w>
was n</w>
diagno sis</w>
mon it
zim bab
substan tially</w>
confir m</w>
积 累</w>
e ag
st ence</w>
大 战</w>
施 行</w>
实 在</w>
je wish</w>
constan tly</w>
encoun tered</w>
3 3
黑 暗</w>
叙 述</w>
防 范</w>
人民 法院</w>
fulfil ment</w>
大 大
中 亚</w>
concer ted</w>
还 会</w>
对 应</w>
gi ft</w>
lo ved</w>
ev acu
处 理
明 年</w>
内 政
经 社
commun icate</w>
colle agues</w>
repeat edly</w>
mer its</w>
feasi ble</w>
stres sing</w>
struc k</w>
采 访</w>
advis ers</w>
desi rable</w>
justi fied</w>
比 亚
taji kistan</w>
sh ir
g all
碎 片</w>
o is</w>
engag ing</w>
职 权</w>
地 下</w>
recru ited</w>
ga thered</w>
tra in
chec k
我 能</w>
promp tly</w>
代表 大会</w>
ste ady</w>
追 踪</w>
指 责</w>
she et</w>
land s
therap y</w>
un anim
ta ught</w>
马 耳
50 ,000</w>
观 众</w>
mon o
sp ite</w>
15 8</w>
操 作
tem ple</w>
feel ings</w>
ok ay</w>
f oun
contin ental</w>
clo thing</w>
oxi de</w>
off enders</w>
ap point</w>
legi tim
引 用</w>
行 为
gul f</w>
predic table</w>
hen ry</w>
z es</w>
深 信</w>
disadvant aged</w>
se ph</w>
i el</w>
cor ner</w>
monit ored</w>
性 恋</w>
头 发</w>
乔 治</w>
联 利</w>
inv est</w>
to kyo</w>
tru ste
会议 议程</w>
送 交</w>
author ization</w>
oppos ite</w>
4 .2</w>
de ar</w>
构 建</w>
budge ting</w>
em per
警察 部队</w>
zam bia</w>
g la
紧 密</w>
le ste</w>
k ok</w>
双 边
欧 安
install ation</w>
198 0s</w>
consist ency</w>
d al
ga thering</w>
a be
R E
之 处</w>
全 民
f at</w>
小 心</w>
ran ging</w>
认 捐</w>
原子 能
危 险
lib ya</w>
推 荐</w>
天然 气</w>
s oc
compil ation</w>
UN EP</w>
某 人</w>
exerc ises</w>
t ol
lin ear</w>
ag en</w>
发 电
attor ney</w>
仲 裁
iter ran
ch ic
edi tion</w>
en trusted</w>
excep tional</w>
号 码</w>
人民 币</w>
总 务</w>
同 年</w>
弥 补</w>
文 献</w>
一 组</w>
球 员</w>
sahar a</w>
mater nity</w>
confi dent</w>
记 住</w>
刚 才</w>
里 克</w>
om et
14 8</w>
马耳 他</w>
b one</w>
mi st
jo hn
立 刻</w>
团 长</w>
sum ption</w>
emphasiz ing</w>
林 业</w>
情 报
bur kina</w>
当 作</w>
ter ing</w>
莫 斯科</w>
hom e
毫 无</w>
职 类</w>
c s
东 盟</w>
系统 地</w>
hi p</w>
u g
ot ed</w>
N e
c asi
爱 沙
disaggreg ated</w>
ch lor
fas o</w>
巴 林</w>
16 1</w>
赤 字</w>
职 员</w>
一 本</w>
hol m</w>
high light</w>
彼 得</w>
安 德
一 个月</w>
sal t</w>
tobac co</w>
德 班</w>
t ful</w>
工作 量</w>
g ren
go od
ge red</w>
under lined</w>
promin ent</w>
等 级</w>
裂 变</w>
尊 重
install ed</w>
世界 贸易组织</w>
N A</w>
explic itly</w>
犹太 人</w>
车 站</w>
affec ts</w>
一 个
主 导</w>
iterran ean</w>
pursu ing</w>
omet res</w>
reiter ate</w>
中 断</w>
看 上去</w>
si c</w>
acci dents</w>
def end
ra m
wor thy</w>
fin ish</w>
consider ably</w>
stre ets</w>
cr yst
ab a</w>
玻 璃</w>
无 需</w>
conf .
教 徒</w>
char t</w>
se arch
sym bol</w>
cap ita</w>
看 出</w>
测 定</w>
tack le</w>
prep are
n ine
st ret
benef ic
col our</w>
这 时</w>
ra in
麻醉 药品</w>
accor d</w>
批 款</w>
中 止</w>
sol ved</w>
迁 移</w>
经社 理事会</w>
s in</w>
网 址</w>
偏 见</w>
精 确</w>
军 官</w>
secon dly</w>
kil ometres</w>
es cal
街 道</w>
热 情</w>
将 要</w>
争 论</w>
bus y</w>
美 國
h ad
in security</w>
glob ally</w>
中 小企业</w>
med iterranean</w>
ad mission</w>
de pression</w>
科学 技术</w>
进 行
ver sions</w>
流 量</w>
14 9</w>
上 学</w>
uni fem</w>
sh oc
port fol
re bel
救 援</w>
ch ap</w>
贝 尔
不 满</w>
i b
2 51</w>
价 格
deli vering</w>
calcul ation</w>
看 作</w>
pol ish</w>
展 览</w>
以 南</w>
ad mitted</w>
requis ite</w>
pres entations</w>
10 ,000</w>
fall en</w>
work place</w>
resi li
el ev
e vil</w>
第十 届</w>
品 质</w>
wo ods</w>
o es</w>
uni fied</w>
卡 尔</w>
协调 会</w>
ot a</w>
ambi que</w>
勘 探</w>
2 40</w>
乡 村</w>
炸 弹</w>
汤 姆</w>
restaur ant</w>
4 8
民 警</w>
艰 难</w>
there in</w>
sloven ia</w>
20 1</w>
太 太</w>
t um
热 带</w>
会 儿</w>
布 什</w>
indirec t</w>
绝 大多数</w>
reg ret</w>
30 %</w>
aut onomy</w>
as ean</w>
拯 救</w>
hur t</w>
ban k
consolid ate</w>
mete or
尊重 人权</w>
米 尔</w>
准 许</w>
In ter
科技 咨询</w>
向 前</w>
确 切</w>
w ars</w>
塔吉 克斯坦</w>
spo ken</w>
laun ching</w>
wou ldn</w>
treasu ry</w>
ki ds</w>
high way</w>
抵 抗</w>
国家 联盟</w>
ess entially</w>
moz ambique</w>
j .</w>
cu ban</w>
wal king</w>
le g</w>
2 70</w>
bour g</w>
总 体
per mission</w>
li ft</w>
示 威</w>
ne ar
有 意</w>
神 经
有所 增加</w>
ger y</w>
pos sibilities</w>
优 秀</w>
b ond</w>
下 载</w>
t ants</w>
autom atically</w>
混 乱</w>
剩 下</w>
使 馆</w>
国际 原子能
国际原子能 机构</w>
自治 区</w>
拉 克</w>
iss ance</w>
ash ed</w>
th res
benefic ial</w>
com promise</w>
传 递</w>
solven cy</w>
sur plus</w>
ra il</w>
却 是</w>
h it
man n</w>
nar row</w>
circu it</w>
联合 共和国</w>
v ary</w>
defini tions</w>
compl icated</w>
al ties</w>
鱼 类</w>
philosoph y</w>
联 检</w>
ass es</w>
19 0</w>
method ologies</w>
preval ence</w>
min eral</w>
bl an
af ford</w>
案 情</w>
lic ense</w>
be at</w>
M u
pl as
第五 次</w>
immun ity</w>
carri er</w>
ti er</w>
大 臣</w>
vir tual</w>
e red</w>
流 入</w>
军事 行动</w>
exclu sively</w>
g il
ic h
线 图</w>
prec ise</w>
c d
resor t</w>
得 知</w>
prepare dness</w>
alco hol</w>
家 中</w>
com prises</w>
pos es</w>
伤 亡</w>
certific ates</w>
未 有</w>
bre aking</w>
grati tude</w>
日 本
du ly</w>
credi ble</w>
hel p
原 本</w>
priv acy</w>
demo graphic</w>
simul ation</w>
部 委</w>
att acked</w>
法 人</w>
16 5</w>
遏 制</w>
播 放</w>
exclu ded</w>
fe eding</w>
参 观</w>
us a</w>
签 发</w>
乐 观</w>
ra m</w>
更 多地</w>
定 位</w>
极 端
mat ri
de priv
vi gor
nep ad</w>
it ual</w>
defin ing</w>
k in</w>
sha re
人 体</w>
第四 条</w>
木 材</w>
re mark
prece ding</w>
19 2</w>
住 所</w>
or bit</w>
购 置</w>
进 来</w>
zimbab we</w>
annex es</w>
mar tin</w>
ro p
withdra w</w>
app rais
演 变</w>
爱沙 尼亚</w>
访 问
主 人</w>
s s
力 支持</w>
hy po
inten ds</w>
por no
3 .3</w>
z er</w>
swe et</w>
as surance</w>
pan ama</w>
10 0,000</w>
1. 4</w>
马 斯</w>
针 对性</w>
不 变</w>
l isting</w>
collabor ative</w>
initi ate</w>
赞 助</w>
戰 爭</w>
cl a
教育 部</w>
尼亚 联合共和国</w>
坦桑 尼亚联合共和国</w>
do ws</w>
lo sing</w>
den ted</w>
low est</w>
l t;</w>
ai res</w>
& lt;</w>
要 么</w>
西 撒哈拉</w>
reimbur sement</w>
less on</w>
pass age</w>
ch u
直升 机</w>
常 用</w>
对 比</w>
there to</w>
survi v
经济 社会</w>
航空 公司</w>
席 会议</w>
h em
学 金</w>
lic ence</w>
敌 对
ill ness</w>
yi eld</w>
enshr ined</w>
职 工</w>
found ations</w>
海 底</w>
高 度
两 国</w>
per mits</w>
b is</w>
20 8</w>
t age</w>
nav y</w>
reaffir m</w>
原 则
联合国 儿童
联合国儿童 基金会</w>
er ly</w>
古 老</w>
dimen sional</w>
dec l
gu ang
sp ati
集 会</w>
团 伙</w>
juris dic
摩 尔多
analy se</w>
承包 商</w>
意 志</w>
stu di
est er</w>
娱 乐</w>
co er
护 照</w>
复 兴</w>
harmon y</w>
sup posed</w>
更 换</w>
i ting</w>
CN .9</w>
ann a</w>
斯 德
inspec tors</w>
ham mad</w>
thor ough</w>
al ex
营养 不良</w>
为 主</w>
201 9</w>
负 面
延 伸</w>
内 阁</w>
he l</w>
周 末</w>
inno cent</w>
em ir
高 中</w>
monu c</w>
航 天
mee ts</w>
利 息</w>
re l</w>
re verse</w>
聚 集</w>
接 下来</w>
negoti ated</w>
adap t</w>
减 缓</w>
en acted</w>
普遍 性</w>
征 求</w>
之 所以</w>
perspec tives</w>
接 纳</w>
cap ture</w>
已 于</w>
valu ation</w>
ic ious</w>
ti gh
rel atives</w>
3 .5</w>
跨 国公司</w>
min ors</w>
十 分
re sume</w>
with standing</w>
eco systems</w>
纤 维</w>
苏丹 政府</w>
appreci ated</w>
D e
既 定</w>
se es</w>
二 氧化
运 输
D i
金 钱</w>
毛 额</w>
送 到</w>
sub region</w>
情 感</w>
fl at</w>
第二 章</w>
注意 力</w>
wit n
vi able</w>
两 级</w>
B C</w>
lau gh
boo k
书 记</w>
swe dish</w>
16 7</w>
wh el
贝 宁</w>
feasi bility</w>
中 所载</w>
养 恤</w>
顺 序</w>
不 過</w>
chron ic</w>
撤 离</w>
si le</w>
per ceived</w>
every body</w>
un prece
questionnai re</w>
ha med</w>
所在 地</w>
关键 作用</w>
sup er</w>
smo ke</w>
sk ill</w>
收 取</w>
mat ure</w>
19 54</w>
succe ed</w>
d est</w>
stock holm</w>
火 车</w>
小 额</w>
fle et</w>
警 官</w>
fic ial</w>
c us</w>
携 带</w>
p air</w>
不 多</w>
冰 岛</w>
pr ic
depar ture</w>
acces sibility</w>
经济 学家</w>
公共 行政</w>
表示 感谢</w>
win ning</w>
pl ing</w>
接 到</w>
擁 有</w>
妇 发</w>
though ts</w>
re venues</w>
establish es</w>
第三 条</w>
amen d</w>
prev ailing</w>
行动 者</w>
ti e</w>
15 9</w>
some what</w>
尽 力</w>
broad casting</w>
configur ation</w>
3 6
人 员
ear nings</w>
benef ited</w>
h. e.</w>
draf ted</w>
ch i</w>
twel ve</w>
g age</w>
wor ry</w>
f ai
evi dent</w>
供 水</w>
su icide</w>
主 体</w>
标 记</w>
cros sing</w>
首 相</w>
b ent</w>
斯 基</w>
reg rets</w>
顾 及</w>
particip atory</w>
2 26</w>
器 官</w>
at en</w>
垃 圾</w>
hurric ane</w>
W in
黑 人</w>
作 法</w>
体 面</w>
圣 诞
饮 食</w>
jour ney</w>
un certainty</w>
补 编</w>
美 洲
第五 条</w>
浪 费</w>
inf ant</w>
ch e</w>
第三 个</w>
2 30</w>
iz ations</w>
lithu ania</w>
有 时候</w>
c air
remun eration</w>
sur ances</w>
abor tion</w>
柏 林</w>
全 力</w>
alban ia</w>
17 5</w>
南 部
rele ases</w>
西班牙 语</w>
农 场</w>
en force</w>
defic it</w>
稳 定性</w>
聪 明</w>
作 為</w>
南部 非洲</w>
wron g
aus p
签 字</w>
有 没有</w>
拉 脱
赔 偿
oc casi
depriv ation</w>
or ate</w>
passeng er</w>
P R
路 线图</w>
夏 天</w>
pos ing</w>
w ishing</w>
navi gation</w>
c is</w>
故 意</w>
cu ts</w>
unprece dented</w>
斯德 哥
mac edonia</w>
采 矿</w>
院 长</w>
派 出</w>
持久 性</w>
定 居</w>
国 防</w>
民主 党</w>
pain ting</w>
损 坏</w>
sahar an</w>
一 群</w>
h at</w>
样 子</w>
原 先</w>
标 签</w>
not withstanding</w>
def end</w>
调 节</w>
欣 见</w>
d ite</w>
sk illed</w>
专 利</w>
闭 会</w>
smo king</w>
don t</w>
企业 家</w>
ausp ices</w>
som ali</w>
诉讼 法</w>
ti ll</w>
wat ching</w>
B o
enrol ment</w>
大 卫</w>
b ak
军 人</w>
股 份</w>
bir ths</w>
la y
el even
每 一</w>
nomin ated</w>
经 共体</w>
充分 利用</w>
双 重</w>
堕 胎</w>
read iness</w>
near by</w>
oper ators</w>
bon ds</w>
小 孩</w>
cen tu
这 部</w>
斯 加</w>
F .
li ties</w>
observ ance</w>
econom ically</w>
ur gently</w>
as ant</w>
in stability</w>
advan cing</w>
S T
税 务</w>
所 指</w>
sug ar</w>
advis ed</w>
日 前</w>
wal ked</w>
拍 摄</w>
精 力</w>
次 序</w>
tu be</w>
bure au
C D</w>
负面 影响</w>
行政 区</w>
存 储</w>
vot ers</w>
it ely</w>
there on</w>
sen ding</w>
peri o
id en
央 行</w>
eleven th</w>
th in</w>
拉脱 维亚</w>
司法 制度</w>
黑 色</w>
合作 社</w>
m ates</w>
e ase</w>
promot es</w>
critic ism</w>
boo st</w>
en rich
sol ely</w>
战斗 人员</w>
19 56</w>
透 露</w>
5 9
po wered</w>
性 别
拉 加</w>
B .
根 據</w>
na sty</w>
放射 性</w>
ret ro
变 更</w>
exten ding</w>
fac ul
ess ing</w>
y m
emp ty</w>
po t
cre w</w>
一 大</w>
mol do
ari ties</w>
te ach</w>
ra h</w>
捐 赠</w>
exhi bition</w>
ba g</w>
cr p
尊 敬</w>
divor ce</w>
pun ish</w>
ste ad
大 脑</w>
提 取</w>
各 样</w>
ham as</w>
P e
ass y</w>
毕 业
cap tured</w>
design ing</w>
可 否</w>
ang ers</w>
司 机</w>
穿 着</w>
destro y</w>
in solvency</w>
里 斯</w>
英 镑</w>
八 条</w>
u red</w>
犯 有</w>
where by</w>
consci ous</w>
miti gate</w>
control ling</w>
捍 卫</w>
岗 位</w>
口 译</w>
称 赞</w>
w alls</w>
minim ize</w>
边 缘
报 复</w>
大 批</w>
股 东</w>
discrimin ate</w>
su e</w>
man kind</w>
hosti lities</w>
simultan eously</w>
马 克</w>
可行 性</w>
summar ized</w>
监 控</w>
系 数</w>
制造 商</w>
优 质</w>
活 動</w>
准 备金</w>
emper or</w>
异 常</w>
phr ase</w>
通货膨 胀</w>
2 13</w>
condem ned</w>
sac ri
decl are</w>
p hi
力 学</w>
平 面</w>
smil e</w>
dur ban</w>
土 库
p df</w>
18 3</w>
thom as</w>
媒 介</w>
aw i</w>
as surances</w>
4 .5</w>
sem i</w>
属 性</w>
t elling</w>
本 质</w>
p .</w>
pre fer</w>
at e
2 11</w>
sw im
R o
种族 灭绝</w>
colum n</w>
毫无 疑问</w>
弃 权</w>
stic k</w>
har dly</w>
超 過</w>
谋 杀</w>
刑事 责任</w>
cho ices</w>
斯德哥 尔
生 意</w>
海 盗</w>
im migrants</w>
us age</w>
continu ously</w>
sy l
fur nit
这 座</w>
法 國</w>
太 空</w>
se iz
h k</w>
ban g
r y
fur n
都 拉斯</w>
从 中</w>
all ed</w>
arran ged</w>
闭 门</w>
def en
气 象</w>
法 外</w>
en voy</w>
j uni
ri ya</w>
epi demic</w>
场 合</w>
吉 布
environ ments</w>
in qui
目 前
fin alized</w>
mar ry</w>
continu ity</w>
清 晰</w>
3 7
dra g
禁 令</w>
over whel
就是 说</w>
sub mits</w>
net working</w>
天 空</w>
conven e</w>
等 于</w>
18 9</w>
结 余</w>
第四 届</w>
消 极</w>
目前 为止</w>
cn .9</w>
补 助</w>
theore tical</w>
老 年</w>
in equ
构 想</w>
dam ages</w>
16 4</w>
外 联</w>
lon g
便 于</w>
nam i
纳米 比亚</w>
未 决</w>
furnit ure</w>
原 籍</w>
亨 利</w>
租 赁</w>
help ful</w>
doc tr
复 制</w>
不 予</w>
prosecu te</w>
神 经</w>
won der</w>
pl ur
person ality</w>
den s</w>
affor dable</w>
19 59</w>
集 中
销 售
一 再</w>
a ver
地 下
P ar
解 释
假 定</w>
英 格兰</w>
fore ver</w>
统 筹</w>
es a</w>
减 免</w>
fo stering</w>
rese tt
radio active</w>
基本 建设</w>
内 地</w>
statu tory</w>
进 出口</w>
pun ished</w>
o rest</w>
传染 病</w>
indic ation</w>
谈 论</w>
恶 劣</w>
obvi ously</w>
ne es</w>
租 金</w>
哲 学</w>
路 易
巴 拉圭</w>
19 47</w>
m ere</w>
利 班</w>
ensu red</w>
indis pen
坦 克</w>
全面 禁止</w>
satur day</w>
拆 除</w>
塔 利班</w>
工 商
董 事</w>
contribu tes</w>
几 十年</w>
prof ound</w>
hy per
靠 近</w>
社会 福利</w>
f lights</w>
项 目
特 区</w>
pe er</w>
i bid</w>
不 断
tradi tionally</w>
重 叠</w>
politici ans</w>
municip ality</w>
la kes</w>
ear ned</w>
旅 馆</w>
emir ates</w>
19 9</w>
解 散</w>
ay a</w>
ali ve</w>
个 体</w>
circul ation</w>
军 火</w>
vis a</w>
斯德哥尔 摩</w>
arri ve</w>
announ cement</w>
19 55</w>
一 面</w>
共产 党</w>
受 到
家 具</w>
sc ru
16 3</w>
8 0
看 待</w>
玛 丽</w>
dupl ication</w>
房 地产</w>
外 空</w>
bu tt
A R
di c</w>
refra in</w>
unmi k</w>
heav en</w>
spati al</w>
会 期</w>
5 .1</w>
attribu ted</w>
l ending</w>
h r</w>
抱 怨</w>
姑 娘</w>
發 行</w>
comp act</w>
bu yer</w>
comfor table</w>
pic tures</w>
tradi tions</w>
逝 世</w>
sub mitting</w>
边缘 化</w>
鈥 檚</w>
危 及</w>
cl ause</w>
work load</w>
选 择
t ali
e tr
挑 选</w>
ar sen
前 任</w>
洪 都拉斯</w>
這 種</w>
distingu ished</w>
流 通</w>
l is
mar king</w>
采取 有效</w>
该 司</w>
牺 牲</w>
bl ind</w>
业 务
势 头</w>
rel ess</w>
英 雄</w>
申 报</w>
foreign ers</w>
收 回</w>
e dy</w>
读 者</w>
电 话
mic ro</w>
ter ly</w>
non eth
a part
2 42</w>
外 债</w>
govern ed</w>
noneth eless</w>
gain ing</w>
19 57</w>
预 警</w>
估 算</w>
pal ace</w>
旅 客</w>
异 议</w>
won der
ur gency</w>
马其 顿
op ti
w ers</w>
cir cle</w>
ak a</w>
argu ments</w>
联 科</w>
即 可</w>
商 人</w>
sust ain</w>
concentr ated</w>
听 说</w>
航 行</w>
enter tainment</w>
受 欢迎</w>
em an
di min
不 明</w>
不 同
高级 官员</w>
week end</w>
巴拿 马</w>
震 惊</w>
资 讯</w>
on ally</w>
40 %</w>
oblig ed</w>
操 守</w>
th row</w>
r ational</w>
recip ient</w>
一 笔</w>
bu ying</w>
舞 台</w>
灵 魂</w>
信 念</w>
ur ing</w>
进 口
经济 学</w>
放 松</w>
there after</w>
阶 级</w>
缺 点</w>
外 面</w>
动 荡</w>
im peri
con ce
严 峻</w>
se y</w>
聘 用</w>
身 边</w>
qui et</w>
pat ent</w>
advoc ate</w>
collec ting</w>
rob ust</w>
ship ment</w>
ap paren
分 之二</w>
国民 议会</w>
ec a</w>
sc op
harmon ized</w>
2 60</w>
提 出
ph ases</w>
20 th</w>
wa ke</w>
ash es</w>
a j
wis dom</w>
por tra
半 岛</w>
quali fications</w>
ograph y</w>
mach ines</w>
利 斯</w>
峰 会</w>
shop ping</w>
确 定性</w>
refl ection</w>
tot ally</w>
17 3</w>
奇 怪</w>
eful ly</w>
北 美</w>
ves sel</w>
赛 季</w>
指 明</w>
普通 照会</w>
gra v
subsi stence</w>
全 文</w>
O S</w>
雷 斯</w>
id ated</w>
hard ware</w>
症 状</w>
jo han
apparen tly</w>
happen s</w>
储 蓄</w>
sam ples</w>
感到 遗憾</w>
今 晚</w>
sacri fic
re nov
prop ag
al ty</w>
tox ic</w>
ben in</w>
indispen sable</w>
de br
a stro
gi ant</w>
该 条</w>
M ic
na to</w>
ren tal</w>
孕 妇</w>
champion ship</w>
只 会</w>
一 事</w>
eth ical</w>
慢 慢</w>
A S
diam ond</w>
16 8</w>
st ating</w>
we aring</w>
execu tives</w>
当 今</w>
publ ishing</w>
三 种</w>
he y</w>
dri vers</w>
ou ts</w>
d ust</w>
不 但</w>
missi les</w>
jo y</w>
扩 张</w>
pill ars</w>
确 信</w>
prote in</w>
3 4
斯 蒂
C h
无线 电</w>
sel s</w>
di stor
policy makers</w>
8 0%</w>
亲 爱</w>
hon or</w>
har b
罗姆 人</w>
马其顿 共和国</w>
回 合</w>
yugosla v</w>
ac knowledge</w>
部 份</w>
val idity</w>
unam id</w>
an der</w>
C ar
pru dence</w>
长 国</w>
紧 张
ric hard</w>
酋 长国</w>
措 辞</w>
六 年</w>
pro ven</w>
compar able</w>
aff ili
I V</w>
运动 会</w>
将 近</w>
i ds</w>
all ing</w>
专 辑</w>
排 名</w>
fi able</w>
先 决
fair ly</w>
自 杀</w>
b ases</w>
15 .
pre ferred</w>
b ic
服 装</w>
2 27</w>
第二 天</w>
be ach</w>
til ity</w>
塞 人</w>
禁 毒</w>
i f
di et</w>
depos its</w>
b t</w>
B A</w>
原 子</w>
n y
process ed</w>
abandon ed</w>
x ing</w>
thir ds</w>
succ ession</w>
rapporte urs</w>
通 過</w>
更 具</w>
第一 章</w>
de vis
土著 人</w>
一 篇</w>
margin alized</w>
comp ound</w>
nav al</w>
en ess</w>
5 .2</w>
un t</w>
民 事
h .</w>
7 0
crow d</w>
救 灾</w>
电 池</w>
商 品
tur ns</w>
sil ence</w>
ton ight</w>
统计 数字</w>
天 然</w>
perio dic
遗 传</w>
国际 货币
cam pus</w>
增 编</w>
ful filling</w>
co ol</w>
as sure</w>
di r
而 已</w>
动 议</w>
spl it</w>
att le</w>
promis ing</w>
理 学</w>
highligh ts</w>
hon dur
endeav our</w>
po orest</w>
审 讯</w>
exac erb
职业 培训</w>
临 时
两 天</w>
17 2</w>
先决 条件</w>
ma ur
til ation</w>
mag nit
iden tical</w>
史 密
rol ling</w>
upgra ding</w>
moldo va</w>
群 众</w>
饮 用水</w>
loc ally</w>
prohi bit</w>
臭 氧</w>
syn thesis</w>
po c
st al
pled ged</w>
追 加</w>
on ed</w>
人 身
u .</w>
个 案</w>
resol ving</w>
im partial</w>
相关 性</w>
森 堡</w>
警察 局</w>
广 泛
三 分之二</w>
pe t</w>
influ enced</w>
un likely</w>
theat re</w>
twel f
老 龄</w>
最 小</w>
er to</w>
习 惯
set tings</w>
regul ate</w>
ox y
淘 汰</w>
不 见</w>
既 然</w>
w ounded</w>
speci fy</w>
练 习</w>
vi br
sto res</w>
ra b
pled ges</w>
电视 台</w>
inter views</w>
女 生</w>
名 册</w>
t l
s ab
创 业</w>
spokes man</w>
专 用</w>
twelf th</w>
專 輯</w>
封 信</w>
jo seph</w>
那 位</w>
产 品
m am
mal ta</w>
con gres
大 选</w>
legitim acy</w>
共 和</w>
red ress</w>
惩 处</w>
零 零
tr y
elabor ate</w>
伊拉 克
欧洲 人</w>
无 人</w>
coordin ates</w>
公共 卫生</w>
in c</w>
占 有</w>
街 头</w>
y a
19 40</w>
艺术 家</w>
源 自</w>
大 概</w>
可 见</w>
challeng ing</w>
運 動</w>
trans boundary</w>
法 文</w>
he ight</w>
. the</w>
mi x</w>
ab str
cro p</w>
此 时</w>
assum ption</w>
acti v
apprais al</w>
the e</w>
3 ,000</w>
audi o</w>
e ping</w>
camer a</w>
数 值</w>
布 朗</w>
东 欧</w>
m is</w>
cul tivation</w>
advis e</w>
十 四届</w>
解决 问题</w>
ti a</w>
回 报</w>
experi ments</w>
斐 济</w>
一 度</w>
portfol io</w>
公 斤</w>
曼 斯坦</w>
土库 曼斯坦</w>
atten ding</w>
ce ments</w>
per su
p ure</w>
sho es</w>
prin ted</w>
下 令</w>
exam ining</w>
订 约</w>
ri de</w>
3 9
三 项</w>
规 律</w>
secur ing</w>
protec tive</w>
思 维</w>
h ague</w>
repu tation</w>
过 分</w>
im ported</w>
延 误</w>
confid ential</w>
ali ens</w>
检查 组</w>
18 5</w>
formul ating</w>
religi ons</w>
成 員</w>
克 劳</w>
夫 妇</w>
七 个</w>
modul e</w>
mis m</w>
ti an
con n
公共 政策</w>
經 濟</w>
pil s</w>
p esti
检察 长</w>
st ation
interpre ted</w>
20 3</w>
d ental</w>
G o
经 营
shu t</w>
德 國</w>
南斯拉 夫
un oc
现 实
刑 法典</w>
cham bers</w>
sur prise</w>
gun s</w>
公共 服务</w>
ab und
忽 略</w>
长 官</w>
ex act</w>
十 周年</w>
惩 治</w>
原 料</w>
依 赖
载 列</w>
两 份</w>
gu es</w>
无 关</w>
p an</w>
modern ization</w>
ber y</w>
nor th
assa ult</w>
统 一
portu gu
递 交</w>
指 派</w>
国防 军</w>
investig ating</w>
et te</w>
L i
具体 措施</w>
min ur
驾 驶</w>
后 代</w>
reti red</w>
tr in
k ur
hi riya</w>
budge ted</w>
stra in</w>
19 52</w>
维护 者</w>
燃 烧</w>
石 油
频 繁</w>
go ogle</w>
porno graphy</w>
模 块</w>
secret ary
fem ales</w>
缩 短</w>
學 院</w>
brief ly</w>
第九 条</w>
曼 谷</w>
ha ble</w>
输 出</w>
pu pils</w>
syner gies</w>
no tion</w>
占 据</w>
un employed</w>
micro soft</w>
据 此</w>
birth day</w>
gu y
恢 复
建 成</w>
所 知</w>
cal m</w>
mi stake</w>
处 在</w>
jama hiriya</w>
inhe rent</w>
disco very</w>
li p
cri tici
19 th</w>
domin ant</w>
bl ack
curricul a</w>
穷 国</w>
中 将</w>
no body</w>
执法 人员</w>
sett le</w>
选 举
具体 情况</w>
14 .
有 者</w>
大 国</w>
up dating</w>
fis sile</w>
ac qu
匹 配</w>
domin ican</w>
M r</w>
牵 头</w>
ap pen
象 征</w>
回 归</w>
呼 吸</w>
den sity</w>
propos es</w>
程 式</w>
克 拉</w>
emo tional</w>
蔓 延</w>
日 益
k is
cl ick</w>
sel ler</w>
邮 政</w>
he igh
s and</w>
effici ently</w>
研 制</w>
cre ates</w>
ID B.
read s</w>
17 1</w>
纠 纷</w>
王 子</w>
严 厉</w>
這 是</w>
4 50</w>
earli est</w>
lo gic</w>
I M
病 例</w>
war ran
集 合</w>
种 子</w>
大 气</w>
公 告</w>
spec ul
bur ning</w>
联 赛</w>
collap se</w>
贩 卖
sh a</w>
奖 学金</w>
G en
隔 离
alloc ate</w>
债 务
w g
列 举</w>
debr is</w>
學 校</w>
m ir</w>
世界 大战</w>
解 雇</w>
every where</w>
雇 佣
那 天</w>
行 径</w>
筹 集</w>
juni or</w>
羁 押</w>
内 在</w>
portugu ese</w>
2 48</w>
u x</w>
r he
negoti ate</w>
早 日</w>
mat h</w>
自 决权</w>
代理 人</w>
post pon
n ag
刑事 诉讼</w>
cop y
arc tic</w>
adhe rence</w>
2. 6</w>
等 教育</w>
i o
deb ates</w>
本 案</w>
加 利
ensu res</w>
substan ti
山 区</w>
in cen
ful filled</w>
8 th</w>
pr oud</w>
mad rid</w>
il ian</w>
杰 克</w>
ta ste</w>
id b.
格 林
文 中</w>
议 定</w>
尸 体</w>
微 笑</w>
2 14</w>
s ounds</w>
ci ally</w>
mag i
d un
政府 部门</w>
tali ban</w>
gen e</w>
P C</w>
s al</w>
阿拉伯 联合
阿拉伯联合 酋长国</w>
古 代</w>
yi el
magnit ude</w>
明确 规定</w>
execu tions</w>
conc es
emb assy</w>
mer cen
花 园</w>
sou theast</w>
项 下</w>
veri fy</w>
t all</w>
19 44</w>
17 4</w>
主持 人</w>
ri sts</w>
as p</w>
schol ar
independ ently</w>
一 会儿</w>
m es
信 函</w>
e i</w>
构 成
w ings</w>
ten d
阳 光</w>
entr ance</w>
二十 一</w>
ra rely</w>
gr ound
现 任</w>
succe eded</w>
d den</w>
4 .3</w>
r out
内政 部</w>
datab ases</w>
可 靠
newspap ers</w>
n ap
ph ones</w>
核 算</w>
伊斯兰 教</w>
正 面</w>
norm ative</w>
gen ital</w>
舉 行</w>
aspir ations</w>
r oughly</w>
bo y
模 糊</w>
ti red</w>
parag u
gra in</w>
区 内</w>
bang kok</w>
an ce
穿 过</w>
str ange</w>
e a</w>
ci an</w>
嫌 疑
counc ils</w>
长 度</w>
proce eding</w>
expen se</w>
defin itely</w>
论 点</w>
demonstr ation</w>
comm o
贝 尔</w>
men ting</w>
CON F.
18 1</w>
慈 善</w>
研 发</w>
机 器
吸 引力</w>
借 口</w>
volunte er</w>
answ ers</w>
聯 盟</w>
令人 满意</w>
故 障</w>
sur gery</w>
得 出
我 們</w>
c able</w>
得出 结论</w>
坚 信</w>
哪 个</w>
吉尔吉斯 斯坦</w>
依 存</w>
uni fication</w>
desi red</w>
友 谊</w>
plat forms</w>
综合 性</w>
联 海</w>
de fault</w>
ut most</w>
布 拉
olo gi
remin ded</w>
phot o
ir a</w>
管 道</w>
德 拉</w>
ten ure</w>
br us
线 性</w>
买 方</w>
valu ed</w>
rul ed</w>
physi cs</w>
diversi fication</w>
主 義
po l</w>
电子 商务</w>
河 流</w>
ur ban
权 力
shi f
stake holder</w>
电 邮</w>
in cum
ch ick
applic ants</w>
electr on
17 7</w>
限 期</w>
dre ams</w>
非 索</w>
萨 摩
sym pt
ac tu
股 市</w>
线 路</w>
patro l</w>
lat via</w>
rec ycl
direc tions</w>
智 能</w>
recei ves</w>
in t</w>
擔 任</w>
tal ent</w>
po lit
k ha
fran k</w>
精 简</w>
spectr um</w>
认 同</w>
secretary general</w>
suppor tive</w>
d wel
abol ition</w>
nami bia</w>
涉 嫌</w>
处 以</w>
p ac
导 航</w>
参加 者</w>
I C
史密 斯</w>
withdra wn</w>
ed itor</w>
re tri
19 1</w>
fo ods</w>
场 地</w>
多 斯</w>
之 以
投 票
wa ves</w>
见 解</w>
无 国籍</w>
pesti ci
fol d</w>
一 同</w>
rec re
poss ess</w>
二氧化 碳</w>
fo s
viet nam</w>
uti lity</w>
鉴 定</w>
究 竟</w>
承 担
多 人</w>
tra ge
sol ving</w>
实 务</w>
選 舉</w>
卡 拉</w>
完 整
rein forced</w>
ill iter
i g</w>
基 督</w>
c ad
进行 谈判</w>
尺 寸</w>
养 老
儿 基会</w>
cir cular</w>
损 伤</w>
republic an</w>
n az
cen ters</w>
维 奇</w>
got ten</w>
p m</w>
vir tually</w>
lux em
chic ago</w>
pl u
und cp</w>
sh an</w>
si ves</w>
sp her
进 攻</w>
t .
敌对 行动</w>
pill ar</w>
l td</w>
清 洗</w>
创 立</w>
po sted</w>
国际货币 基金组织</w>
lands cape</w>
苦 难</w>
同 学</w>
入 学</w>
18 4</w>
unmi l</w>
财政 部</w>
诸 多</w>
图 片</w>
优 点</w>
最 终
exha us
过渡 时期</w>
公 务</w>
七 年</w>
introduc es</w>
生 殖
抵 押</w>
遗 留</w>
选 项</w>
ec hn
d ji
b en</w>
苹 果</w>
2 25</w>
音 樂</w>
致 命</w>
com mentary</w>
exc use</w>
co gn
第五十 九</w>
志 愿</w>
dy nasty</w>
mo ves</w>
form erly</w>
证 词</w>
游 泳</w>
细 菌</w>
一 批</w>
p ts</w>
an thro
acc ru
決 定</w>
多 哥</w>
convers ation</w>
延 期</w>
bas ket
杀 死</w>
3 60</w>
19 30</w>
灭 绝
contr ace
5 7
do gs</w>
根 除</w>
s ad</w>
star ts</w>
it ement</w>
co ach</w>
rout es</w>
not able</w>
法律 事务</w>
gol ese</w>
ali en</w>
ari ans</w>
台 灣</w>
neigh bor
discus sing</w>
diplom acy</w>
蛋 白
thu si
obstac le</w>
E C</w>
bas eline</w>
月 球</w>
ir s</w>
叫 做</w>
bah rain</w>
ex it</w>
where ver</w>
tic ket</w>
陆 地</w>
划 界</w>
东 南亚</w>
shad ow</w>
公 寓</w>
收 养</w>
scre ening</w>
提供 者</w>
上 市</w>
k h</w>
eco was</w>
hondur as</w>
市 长</w>
已 知</w>
唱 片</w>
20 2</w>
预 先</w>
年 级</w>
介 入</w>
imag ine</w>
流行 病</w>
k al
el ect</w>
coordin ators</w>
centu ries</w>
frag ile</w>
航 班</w>
surviv ors</w>
hy gi
愤 怒</w>
en thusi
consi st</w>
reli ability</w>
inspec tions</w>
ur an
um es</w>
灭绝 种族</w>
勇 气</w>
pul l</w>
ad just</w>
em e
isol ated</w>
人口 普查</w>
confir mation</w>
詹 姆斯</w>
18 6</w>
1. 6</w>
真 诚</w>
uc tu
布 罗
bre ast</w>
18 .
党 派</w>
bel ong</w>
委 員
thres hold</w>
dis appearances</w>
tu ber
en do
cul tiv
苏 格兰</w>
an gry</w>
十 二</w>
stereotyp es</w>
nar r
la o</w>
e ge</w>
假 期</w>
东 京</w>
oun ced</w>
S B
b n</w>
接 待</w>
six tieth</w>
可靠 性</w>
优 先
reinfor cing</w>
port al</w>
k im
发 动机</w>
est onia</w>
bel l</w>
题 目</w>
condi tional</w>
pro lon
liveli hoods</w>
kyrgy z
excep tions</w>
arti st</w>
sequ ence</w>
feat ured</w>
ant a</w>
計 劃</w>
fif tieth</w>
pu erto</w>
matri x</w>
licen sing</w>
布 莱
it ate</w>
财务 报告</w>
re con
13 .
brus sels</w>
自行 车</w>
展 望</w>
g as
se ments</w>
la c</w>
ji u</w>
布 雷
ic eland</w>
2 33</w>
in i</w>
town ship</w>
i stry</w>
境 外</w>
regi stra
arti sts</w>
公 主</w>
il a</w>
時 期</w>
色 彩</w>
purch ased</w>
in ali
roc ket</w>
适 足</w>
do ors</w>
第 一步</w>
20 6</w>
黄 金</w>
pay able</w>
em a</w>
termin al</w>
min ed</w>
二 世</w>
邮 票</w>
何 时</w>
枪 支</w>
各 州</w>
冬 季</w>
dis appeared</w>
营 销</w>
加勒 比
诊 所</w>
re tention</w>
poli tically</w>
想 起</w>
生 境</w>
推 翻</w>
迫 害</w>
har ry</w>
训 研</w>
大 赦</w>
pre dec
av a</w>
用 尽</w>
adap ted</w>
默 德</w>
recur rent</w>
便 是</w>
than ked</w>
容 器</w>
pharmac eu
abst en
suppl ied</w>
casu alties</w>
写 作</w>
他 会</w>
威 尔
ref use</w>
型 期</w>
pho to</w>
20 5</w>
萨摩 亚</w>
cr y</w>
17 8</w>
w l</w>
kyrgyz stan</w>
ci ting</w>
转 型期</w>
ku wa
聚 会</w>
出 境</w>
W P
罗 斯</w>
哈 根</w>
acceler ated</w>
生 于</w>
第九 届</w>
witn essed</w>
改 组</w>
quali fication</w>
practi tioners</w>
血 液</w>
reli ance</w>
medic ines</w>
fl uctu
pl ates</w>
fer tility</w>
贩卖 人口</w>
unoc i</w>
概 况</w>
期 間</w>
basket ball</w>
sa ved</w>
break down</w>
有 个</w>
奴 隶</w>
北 约</w>
段 落</w>
更 正</w>
dynam ics</w>
劳动 者</w>
辞 职</w>
原则 上</w>
乐 队</w>
產 生</w>
奥 运</w>
in k</w>
言 之</w>
may or</w>
附 上</w>
d p
arran ge</w>
欧安 组织</w>
cast le</w>
配 额</w>
蒙特 雷</w>
st atic</w>
第五十 八</w>
ac commo
ro g
卢 森堡</w>
me ters</w>
重 量</w>
国内 外</w>
inali enable</w>
沿 着</w>
attr active</w>
y an
explic it</w>
2 18</w>
min d
flor ida</w>
著 作</w>
te ars</w>
spir itual</w>
pen insul
持久 和平</w>
以 供</w>
gi an</w>
保护 区</w>
accommo date</w>
I P
第二 阶段</w>
听 见</w>
acknowled ging</w>
体 重</w>
v ol</w>
registra r</w>
消 耗
客 人</w>
实 力</w>
一 日</w>
c i</w>
ber lin</w>
获 益</w>
违 法</w>
拉 特</w>
safe guar
2 5%</w>
亲 属</w>
wonder ful</w>
难 道</w>
核 证</w>
n g</w>
itor ial</w>
學 生</w>
会议 组织</w>
伊斯兰 会议组织</w>
cl oud</w>
交 往</w>
n .</w>
复杂 性</w>
chem istry</w>
信 中</w>
18 7</w>
os ce</w>
co at</w>
抵 消</w>
卫生 保健</w>
accompl ished</w>
ho p</w>
进 去</w>
引 进</w>
un acceptable</w>
inten sity</w>
cust om</w>
编 纂</w>
re alities</w>
bloc ks</w>
吉布 提</w>
庞 大</w>
2 22</w>
归 还</w>
k or
高 速
崩 溃</w>
remark able</w>
sc o</w>
fe els</w>
pi er
wed ding</w>
sym posi
kuwa iti</w>
无论 如何</w>
under took</w>
p el
解释 性</w>
ro bo
M an
似 的</w>
evalu ated</w>
dis missed</w>
under ground</w>
血 管</w>
界 限</w>
捕 捞</w>
lo gy</w>
整 理</w>
magi str
neutr al</w>
二 零零
re tail</w>
早 晨</w>
伴 侣</w>
hon est</w>
superi or</w>
vari able</w>
produc er</w>
tribu te</w>
e v</w>
decentr alization</w>
16 .
借 鉴</w>
教 练</w>
什 么样</w>
al ong
刑事 诉讼法</w>
re deployment</w>
医疗 保健</w>
模 板</w>
专题 讨论</w>
進 入</w>
相互 依存</w>
平 静</w>
virtu e</w>
ro tation</w>
参 议院</w>
波 多
西 欧</w>
妥 善</w>
can cel
自动 化</w>
4 7
17 6</w>
所 提</w>
certi fied</w>
summ its</w>
agre es</w>
时 说</w>
入 学率</w>
g ad
stri ve</w>
19 4</w>
gu ess</w>
传 输</w>
l ag
品 种</w>
概 要</w>
bom b</w>
absolu tely</w>
secon ds</w>
无 条件</w>
luxem bourg</w>
见 下文</w>
shel l</w>
ig no
as sured</w>
恐 吓</w>
信 用</w>
dan ish</w>
aut um
gra vity</w>
歌 手</w>
势 力</w>
short age</w>
satell ites</w>
my ster
tr ump</w>
facul ty</w>
out set</w>
v ent</w>
inv esting</w>
gla d</w>
文 件
解放 军</w>
形 状</w>
pir acy</w>
卷 入</w>
分 至</w>
伴 随</w>
s r</w>
inequ alities</w>
ther mal</w>
clam ation</w>
素 质</w>
privileg es</w>
fre ight</w>
testi mony</w>
sud den</w>
20 ,000</w>
respon sive</w>
此 机会</w>
fail s</w>
c ere</w>
um bered</w>
out i</w>
justi fy</w>
y i</w>
hat red</w>
bro w
s wan
produc es</w>
扭 转</w>
ra ft</w>
flo od</w>
im pres
新 生
哪 儿</w>
qu al
quanti tative</w>
旁 边</w>
fi ji</w>
episo de</w>
民族 和解</w>
ul l</w>
jo ining</w>
intensi fied</w>
附 录</w>
汇 款</w>
区域 性</w>
exclu ding</w>
sil ent</w>
mot or
中 午</w>
ow ed</w>
struc tured</w>
al tar</w>
exerc ised</w>
背 后</w>
rec ession</w>
coun try
big ger</w>
t oler
加 州</w>
司法 机关</w>
tend ency</w>
bur n</w>
多 元
so m</w>
特 殊
r at</w>
幸 运</w>
巴 巴
司法 部门</w>
托 克劳</w>
不 知</w>
dis bur
detec t</w>
cred itors</w>
内 外</w>
satis fy</w>
oper ator</w>
同 性恋</w>
deci sive</w>
sin cere</w>
le um</w>
evi d
e e</w>
20 7</w>
enabl es</w>
穆 罕
ch ro
renew al</w>
li able</w>
助 长</w>
vac ancies</w>
evalu ating</w>
市 镇</w>
主义 者</w>
m apping</w>
布鲁 塞尔</w>
sou th
re stored</w>
书 籍</w>
deteri or
微 型</w>
san d
说 服</w>
sol ic
p en</w>
motiv ated</w>
contra dic
mon ter
analy sed</w>
ga ther</w>
mo m</w>
institu tes</w>
相 结合</w>
电 影
particip ant</w>
话 题</w>
gen ts</w>
am es</w>
18 8</w>
divi de</w>
p es</w>
15 %</w>
cis co</w>
beli efs</w>
far ming</w>
exerc ising</w>
accor ded</w>
第三 国</w>
报 导</w>
蓝 色</w>
家 伙</w>
ti ble</w>
ho sting</w>
若 干
体 验</w>
w are
抱 歉</w>
men d
ci ans</w>
窗 口</w>
吸 烟</w>
revolu tionary</w>
19 8</w>
e tary</w>
硬 件</w>
哥伦 比亚
cor ps</w>
世 卫</w>
tec h</w>
offen sive</w>
ne e</w>
sympt oms</w>
sh ed</w>
pan els</w>
正 当
忆 及</w>
tour ist</w>
hel l</w>
茨 瓦
rou tine</w>
a ster
敦 士
C RC</w>
深 切</w>
kno wing</w>
inten se</w>
expres s
特 別</w>
b ills</w>
hi dden</w>
dic t
支 敦士
同 情</w>
列 支敦士
幼 儿</w>
海洋 环境</w>
add en
20 9</w>
合 约</w>
仪 器</w>
毒 性</w>
次 世界大战</w>
荣 誉</w>
波多 黎
流 感</w>
注 射</w>
accred itation</w>
节 约</w>
gra m
续 会</w>
v ec
argu es</w>
加 深</w>
or i</w>
bri g
197 0s</w>
fail ing</w>
chr ist</w>
马 德里</w>
焦 点</w>
比 尔</w>
环 节</w>
感 染
fa st
ru pt</w>
un usual</w>
服务 中心</w>
2 43</w>
当 天</w>
3 .4</w>
马 达
结构 性</w>
波多黎 各</w>
ul a</w>
car ries</w>
洛 杉
lingu istic</w>
突 破</w>
se ed</w>
天 文
k at
is lam</w>
h es</w>
妥 协</w>
制 性</w>
pe ac
op tical</w>
穆罕 默德</w>
爵 士</w>
不 如</w>
shoul der</w>
昂 贵</w>
tuber cul
sti g
deteri oration</w>
te eth</w>
optim al</w>
l ap
he res</w>
a w</w>
制造 业</w>
一 揽
y ard</w>
st ag
de duc
thir teenth</w>
文 职</w>
农 产品</w>
僵 局</w>
深 度</w>
慷 慨</w>
公 式</w>
ref usal</w>
cir cl
ad i</w>
arti ficial</w>
一揽 子</w>
quanti ties</w>
施 政</w>
民 用</w>
国防 部</w>
acknowled ges</w>
马达 加
适 宜</w>
抵 制</w>
kill ings</w>
oper ates</w>
交 换
保 障
z y
on ds</w>
資 料</w>
信 件</w>
mobil izing</w>
应 予</w>
ye ar
ass ass
回 复</w>
aw a</w>
详 尽</w>
市场 准入</w>
墨西 哥
. 15</w>
同 行</w>
issu ing</w>
哥 本
bound aries</w>
conver ted</w>
cot ton</w>
某 种
paragu ay</w>
avoi ding</w>
警 务</w>
变 量</w>
d ong</w>
交易 所</w>
带 到</w>
petro leum</w>
芝 加
可 信</w>
Add .2</w>
监 视</w>
完整 性</w>
M e
un k</w>
institu tion
度 过</w>
justi fication</w>
contin gency</w>
autum n</w>
m ate</w>
z i</w>
sho oting</w>
t ells</w>
尼日 尔</w>
un paid</w>
appropri ately</w>
马拉 维</w>
monter rey</w>
forec ast</w>
暴 露</w>
work force</w>
19 41</w>
guidel ine</w>
19 20</w>
评 注</w>
t one</w>
list ening</w>
isol ation</w>
fu els</w>
核 不
预 见</w>
manag er
核不 扩散</w>
are r</w>
appe aled</w>
很 小</w>
enh agen</w>
re per
elabor ated</w>
i i.
it ably</w>
along side</w>
dis pat
独立 宣言</w>
control ler</w>
mag ic</w>
院 校</w>
运 转</w>
卫生 设施</w>
qu est</w>
lib eral</w>
juris prudence</w>
adden dum</w>
出 台</w>
hand led</w>
矿 物</w>
war ned</w>
ten s</w>
co ok</w>
人 工</w>
实 用</w>
na issance</w>
章 节</w>
resett lement</w>
远 程</w>
peninsul a</w>
es cap
第 七</w>
借 此机会</w>
新 增</w>
校 长</w>
统计 局</w>
i p</w>
nig er</w>
9 0%</w>
we t</w>
counter ing</w>
commen ced</w>
经 常
cypri ot</w>
de ep
altern ate</w>
译 文</w>
congratul ate</w>
各 部</w>
inf ected</w>
便 宜</w>
高 速</w>
me al</w>
ten der</w>
列支敦士 登</w>
fran k
C o
拉 姆</w>
terri ble</w>
rel uc
G DP</w>
玻利 瓦尔</w>
experi encing</w>
遵 照</w>
ti bet
19 42</w>
結 束</w>
qu ad
speci alists</w>
sensi tiz
海 牙</w>
tax ation</w>
s cor
东 南
resili ence</w>
sh ock</w>
破 坏
违 法行为</w>
哥本 哈根</w>
vari an</w>
unc cd</w>
j ump</w>
correc tions</w>
archi ves</w>
獨 立</w>
总 量</w>
固 有</w>
reser ved</w>
cop enhagen</w>
op pon
oc curren
defe at</w>
孤 立</w>
evol ving</w>
dra matic</w>
swit ch</w>
ar ticul
洪 水</w>
inspi red</w>
consult ant</w>
征 收</w>
存 者</w>
verb ale</w>
p tive</w>
dis proportion
益 于</w>
连 续性</w>
13 25</w>
prin cess</w>
进 而</w>
时 机</w>
it ated</w>
落 后</w>
实 效</w>
一 体</w>
z hang</w>
allow ances</w>
这 使</w>
conven ient</w>
19 3</w>
机器 人</w>
19 53</w>
睡 觉</w>
bo w</w>
暗 示</w>
播 出</w>
natur ally</w>
雇佣 军</w>
心 中</w>
日 常
撰 写</w>
b outi</w>
non governmental</w>
entreprene urs</w>
cho o
cl ou
格 达</w>
substitu te</w>
ade n</w>
马达加 斯加</w>
ous es</w>
hai tian</w>
送 给</w>
in tent</w>
tim ing</w>
ad ds</w>
mal es</w>
dji bouti</w>
无 视</w>
几 种</w>
li kes</w>
bre ad</w>
概 览</w>
to kel
distin c
道 理</w>
必 須</w>
大 道</w>
gol an</w>
睡 眠</w>
年 龄
二 届</w>
me tric</w>
感 激</w>
recon naissance</w>
in admissible</w>
classi cal</w>
气 象
reco ver</w>
ter ror</w>
17 9</w>
b hu
arbitr al</w>
or tho
八 个</w>
绳 之以
绳之以 法</w>
为 本</w>
las er</w>
sing er</w>
收 容</w>
插 入</w>
加 共和国</w>
ath le
最 終</w>
城 堡</w>
月 初</w>
3 5
餐 厅</w>
uni verse</w>
甲 基</w>
水 果</w>
mul tin
4 6
fortun e</w>
百分 之
cho se</w>
知 名</w>
样 本</w>
大 学生</w>
j ack
a ren
博 茨瓦
writ ers</w>
standardi zed</w>
en tail
co di
broad ly</w>
主 意</w>
2 21</w>
或 缺</w>
up coming</w>
gan g</w>
A T
资 本
7 0%</w>
肿 瘤</w>
o au</w>
in spir
改 革
tubercul osis</w>
性 格</w>
关键 问题</w>
manager ial</w>
前 所
中 立</w>
align ment</w>
日内 瓦
地 名</w>
h es
commen ds</w>
20 4</w>
tour na
stu ff</w>
dar k
it o</w>
e k
链 接</w>
对 不起</w>
wi re</w>
den ial</w>
tex as</w>
mal nutrition</w>
澳 洲</w>
yp e</w>
pi d</w>
manife stations</w>
tari ff</w>
sen sing</w>
f lower</w>
resi dual</w>
nation wide</w>
轻 松</w>
荣 幸</w>
悲 剧</w>
clean ing</w>
境 况</w>
s mes</w>
plan es</w>
多 种
19 39</w>
词 汇</w>
time table</w>
自 信</w>
up dates</w>
i di
加利 福
fin ite</w>
nec k</w>
刑 罚</w>
d na</w>
bu ff
ar gue</w>
a a</w>
记 载</w>
所 致</w>
巴巴 多斯</w>
ti ed</w>
编 码</w>
赤 贫</w>
简 称</w>
业 已</w>
correc tly</w>
不可 或缺</w>
lan ding</w>
ce l</w>
19 6</w>
紧张 局势</w>
费 率</w>
印 第
常 务
课 题</w>
加 紧
难 题</w>
蔬 菜</w>
用 语</w>
l acking</w>
调查 团</w>
远 离</w>
各种 各样</w>
列 车</w>
notic ed</w>
abe th</w>
三 大</w>
un itar</w>
同 步</w>
con golese</w>
c ope</w>
民 间
加紧 努力</w>
sp r
S P</w>
add .2</w>
speci alist</w>
lo b
je op
60 %</w>
全民 投票</w>
tra ins</w>
切 割</w>
d v
esc wa</w>
第六 次</w>
2 15</w>
烟 草</w>
scen ario</w>
bl u
朝 着</w>
pre cis
延 续</w>
un ci
f ant
通 告</w>
第一 条</w>
中 所</w>
vic tor
re mit
内 战</w>
飞 行
相互 作用</w>
2 41</w>
parti ality</w>
相 關</w>
promis es</w>
profes sion</w>
pro test</w>
太阳 能</w>
务 人员</w>
ver tical</w>
marri ages</w>
沉 默</w>
走 私</w>
缴 付</w>
特 朗
2 28</w>
exam inations</w>
at ori
桥 梁</w>
ear n</w>
su rely</w>
益 处</w>
re mind</w>
tis m</w>
体 罚</w>
conserv ative</w>
elimin ated</w>
clu bs</w>
杰 出</w>
f ans</w>
最 後
re alizing</w>
militi a</w>
di x</w>
技术 支持</w>
怎 么
por ters</w>
rem n
reco vered</w>
A P
观 看</w>
受 过</w>
design s</w>
me tro
question ed</w>
free ze</w>
alloc ations</w>
感 器</w>
sign als</w>
favor ite</w>
attr acted</w>
sam oa</w>
Win dows</w>
收 款</w>
r ough</w>
lin king</w>
l ot
委員 會</w>
装 饰</w>
pre f
inten d</w>
br un
ag grav
per ception</w>
err ors</w>
病 率</w>
卡 车</w>
19 5</w>
supervis ory</w>
ar ray</w>
結 果</w>
欧 国家</w>
counter parts</w>
皇 帝</w>
sha ped</w>
服 務</w>
多米尼 加共和国</w>
h u</w>
超 级</w>
無 法</w>
审计 员</w>
tra um
kin dly</w>
ap por
作出 反应</w>
viol ate</w>
tra de
survi ve</w>
政治 家</w>
pen etr
precis ely</w>
install ations</w>
civil ization</w>
证 券
抢 劫</w>
revit alization</w>
leg es</w>
conn ect</w>
00 ,000</w>
发 育</w>
ch ea
bre a
comfor t</w>
预防 措施</w>
非洲 大陆</w>
无 法
gu ards</w>
训 练
as a</w>
反 应
立法 会</w>
无 辜</w>
2. 7</w>
马尔 代
utili ze</w>
pe red</w>
forese en</w>
脸 上</w>
重大 进展</w>
manufactu rers</w>
累 积</w>
保 留
maxim ize</w>
soldi er</w>
schol ars</w>
ban d
护 士</w>
m in</w>
fav or</w>
权力 下放</w>
trans form</w>
幻 想</w>
ev ed</w>
第十 九条</w>
analy sts</w>
据 报</w>
jurisdic tions</w>
consul ting</w>
vari ed</w>
eg gs</w>
can cell
方 程</w>
判 定</w>
un necessary</w>
egyp tian</w>
退 休
f ounding</w>
特朗 普</w>
一 九
re fin
re vol
沉 重</w>
cro wn</w>
am ing</w>
k im</w>
busin ess
毕业 生</w>
上 周</w>
gu ys</w>
emer gence</w>
ati vity</w>
好 好</w>
族 群</w>
实 践
bag h
不 丹</w>
充 当</w>
un om
年 份</w>
multilat er
lun ch</w>
财务 状况</w>
ur ship</w>
中 方</w>
走 进</w>
success or</w>
身份 证</w>
第七 届</w>
监 护
居 住
rup ted</w>
purch asing</w>
日 历</w>
out look</w>
桌 子</w>
x in
s ara
總 統</w>
到 期</w>
up grade</w>
dis man
性 骚扰</w>
再 也</w>
ht ml</w>
管理 机构</w>
巴 赫</w>
不 必要</w>
clear ing</w>
连 同</w>
博茨瓦 纳</w>
re ci
mani pul
ess ence</w>
engine er</w>
M P
po p</w>
diam onds</w>
tan ks</w>
bal lot</w>
ambi tious</w>
生 素</w>
in hi
po e
je ws</w>
promul gated</w>
非 统
非统 组织</w>
妹 妹</w>
shel f</w>
原 有</w>
col leges</w>
B ar
分 娩</w>
亲 自</w>
p r</w>
memor ial</w>
独立 国家</w>
threat en</w>
compe te</w>
civil izations</w>
斯 克</w>
总 裁</w>
各项 规定</w>
sh i</w>
pre si
exha u
batt ali
除 此
迎 接</w>
explo sives</w>
回 去</w>
s oph
2 80</w>
amoun ting</w>
扫 盲</w>
tempor arily</w>
创 伤</w>
wil d
fo ren
c p.
suppli er</w>
W e
k it</w>
conven i
防 御</w>
v in</w>
mi ting</w>
inst al
预算 编制</w>
明 星</w>
cat alo
barri er</w>
保 守</w>
ell a</w>
cair o</w>
bl ow</w>
p y</w>
19 .
患 有</w>
学 员</w>
补 救
圭 亚
incorpor ating</w>
点 儿</w>
in sur
不 让</w>
man ship</w>
tr acks</w>
entreprene urship</w>
ail ed</w>
is hable</w>
com ings</w>
简 直</w>
bas in</w>
而 易
ro of</w>
eu r</w>
裁 减</w>
这 会</w>
一 月</w>
d é
水 域</w>
尔 特</w>
pro spect</w>
publ ish</w>
丧 生</w>
f rac
conclu des</w>
高 达</w>
大 致</w>
r is</w>
ator ial</w>
nor we
英 译
li miting</w>
出 身</w>
tr ic
d ged</w>
格 蘭</w>
cu ri
联合国 日内瓦
联合国日内瓦 办事处</w>
阿拉伯 国家联盟</w>
ti ght</w>
kit chen</w>
孕 产妇</w>
in ity</w>
2 37</w>
per secu
集 束</w>
f i</w>
fle w</w>
开 放
哈 马</w>
af ore
社 交</w>
盘 旋</w>
is tic
ne ed
2 17</w>
十 三</w>
隧 道</w>
第五十 七届</w>
cur e</w>
2 16</w>
惊 讶</w>
copy right</w>
s wa
war rant</w>
電 視</w>
at tain</w>
lo aded</w>
illin ois</w>
paren tal</w>
運動 會</w>
极 为重要</w>
客 户
turk men
ran king</w>
ac ies</w>
兼 顾</w>
指 引</w>
修 理</w>
sub commission</w>
pass port</w>
horiz on
犯 人</w>
no se</w>
hi de</w>
to go</w>
com prise</w>
第十 一届</w>
investig ative</w>
組 成</w>
从 前</w>
appen dix</w>
6 .2</w>
债务 人</w>
tre mend
交 叉</w>
b ret
第一 阶段</w>
不 足
化 石</w>
tokel au</w>
incorpor ation</w>
o ch
有 化</w>
4 9
prosecu ted</w>
stan ts</w>
em ail</w>
ail s</w>
迈 出</w>
支 撑</w>
ri vers</w>
o be
ke ys</w>
under scored</w>
sp ouse</w>
义 务
defin es</w>
第六 届</w>
毫 不</w>
tr il
mod est</w>
coun sel
空 运</w>
金融 市场</w>
石 头</w>
使 人</w>
braz ilian</w>
诚 实</w>
lo on</w>
质 量
替代 品</w>
决 定性</w>
公 私</w>
stam p</w>
r um
po t</w>
m aps</w>
gu am</w>
wor ding</w>
扶 持</w>
一 颗</w>
塔 尼亚</w>
马尔代 夫</w>
英 语
comp ounds</w>
特别 行政区</w>
不 确定性</w>
ac cus
deplo y</w>
uran ium</w>
li u</w>
he ating</w>
款 额</w>
6 .1</w>
pre ference</w>
enc umbered</w>
庭 长</w>
threat ening</w>
pl ain</w>
explo red</w>
总 的
musi cal</w>
every day</w>
疗 法</w>
mal awi</w>
ag as
玩 具</w>
极端 主义</w>
固 定
周 知</w>
acce ded</w>
ac he</w>
招 标</w>
stipul ates</w>
第五 届</w>
ti li
reve al</w>
afore mentioned</w>
i v
空 气
明 智</w>
hom o
contro versi
百 姓</w>
m ic</w>
顯 示</w>
学术 界</w>
民 法</w>
改 动</w>
in vested</w>
贩 毒</w>
专 长</w>
detec ted</w>
分 支</w>
ir o</w>
gen ic</w>
id es</w>
lo ading</w>
查 看</w>
sp heres</w>
深 入
re mem
pen sions</w>
collec tively</w>
un u</w>
st ol
bench marks</w>
la p</w>
avoi ded</w>
ann e</w>
量 化</w>
t ough</w>
short comings</w>
bre aks</w>
出 生
ag ers</w>
sco res</w>
基 层</w>
angel es</w>
德 尔</w>
占领 国</w>
swan a</w>
rati fying</w>
es cor
幸 存者</w>
sex ually</w>
省 份</w>
cont ex
br ac
参 考
leg s</w>
19 7</w>
卖 方</w>
e h</w>
借 助</w>
ke l</w>
电 路</w>
不 良
it y
musli ms</w>
mathemati cs</w>
fe ars</w>
中央 银行</w>
exp ir
罗 伯特</w>
空 军</w>
投 标</w>
当 事</w>
導 致</w>
k on
均 等</w>
a is</w>
CO P
致 力</w>
液 体</w>
in f</w>
gu est</w>
prolon ged</w>
e y
前所 未有</w>
fore station</w>
数 百
建 制</w>
主 角</w>
bul k</w>
相 符</w>
到 处</w>
th ick</w>
mexic an</w>
exhau sted</w>
承 付</w>
kee ps</w>
h ec
替 换</w>
体 内</w>
一 把</w>
k ir
dispar ities</w>
es .
粒 子</w>
prote sts</w>
nine teenth</w>
kee pers</w>
commen cement</w>
区域 间</w>
ten stein</w>
suppor ters</w>
S te
a venue</w>
联合国 人口
联合国人口 基金</w>
它 們</w>
claim ing</w>
1. 8</w>
欣 赏</w>
文化 遗产</w>
whe el</w>
甄 选</w>
design ation</w>
斯坦 共和国</w>
bu ried</w>
令人 遗憾</w>
pres enting</w>
nom ination</w>
P O
简 介</w>
执 照</w>
med al</w>
aud its</w>
stead ily</w>
5 8
educ ated</w>
座 位</w>
stra ined</w>
en lar
turkmen istan</w>
in her
长期 以来</w>
b righ
有 毒</w>
str ing</w>
生 日</w>
补救 措施</w>
持 续
仓 库</w>
C H
宣 传
冷 战</w>
s au
im partiality</w>
5 .3</w>
加 重</w>
dra m
5 .5</w>
1, 0
巴 格达</w>
大 厦</w>
ban ds</w>
si gh
拿 出</w>
全国 性</w>
im position</w>
bagh dad</w>
regul ating</w>
commun icated</w>
U ni
传 感器</w>
g ar</w>
外 界</w>
城市 化</w>
受益 人</w>
n ab
alli es</w>
dra ws</w>
develop mental</w>
scot land</w>
19 29</w>
p um
hear ings</w>
fac e
2 66</w>
调 集</w>
浏 览</w>
天 堂</w>
同 一个</w>
s tin
仿 真</w>
id ad</w>
swim ming</w>
clari fied</w>
su dan
cel lan
hol istic</w>
中 小型</w>
chap ters</w>
扣 押</w>
托 管</w>
反 而</w>
60 s</w>
之 类</w>
mist akes</w>
欧洲 共同体</w>
norwe gian</w>
流 动性</w>
应 是</w>
十 六届</w>
fi x</w>
哥 哥</w>
同 期</w>
一 台</w>
b ay
4 ,000</w>
多 重</w>
序 列</w>
增 设</w>
cor ro
否 定</w>
2 53</w>
su r</w>
sta dium</w>
fl ed</w>
逃 离</w>
G u
里 程
英译 汉</w>
p our</w>
这 两项</w>
尽 量
天 使</w>
dec lining</w>
pic ked</w>
2 64</w>
马 丁</w>
蛋白 质</w>
犹 太</w>
ic ating</w>
pollu tants</w>
lou is</w>
常 任
伊拉克 政府</w>
conve y</w>
句 子</w>
exp ects</w>
bloc k
回 国</w>
呈 现</w>
原 文</w>
oper ation
modi fication</w>
ologi sts</w>
圭亚 那</w>
at al</w>
人 身</w>
通 胀</w>
de an</w>
良 心</w>
对 本</w>
动 用</w>
thin ks</w>
concer t</w>
m g</w>
样 品</w>
太 多</w>
f an
deser t</w>
air lines</w>
W G
分 成</w>
wor n</w>
19 43</w>
氧 化</w>
与 会</w>
bot swana</w>
4 .4</w>
haz ard</w>
g c</w>
cou ples</w>
mad agas
in aug
免 除</w>
ir respective</w>
dele ted</w>
服务 业</w>
apart ment</w>
心 脏</w>
主 导
trans fer
制 备</w>
生产 能力</w>
政 策
合 理
过 时</w>
讲 述</w>
拖 欠</w>
士 学位</w>
me ter</w>
induc ed</w>
三 方</w>
occur ring</w>
assum ptions</w>
确 性</w>
M a
平方 公里</w>
不可 避免</w>
st ayed</w>
遥 感</w>
weak nesses</w>
neighb ours</w>
engine ers</w>
认 知</w>
bot t
bar bad
不 适</w>
pi one
hal t</w>
第一 款</w>
中 东
sim pl
奴 役</w>
2 3.
宽 容</w>
i gh</w>
her o
t u</w>
1. 15</w>
只 不过</w>
罢 工</w>
re sumption</w>
cros s
absten tions</w>
表 达
总 督</w>
sa ke</w>
arti stic</w>
al an</w>
ten nis</w>
福 利
两 国
ton gue</w>
ai da</w>
soph istic
observ atory</w>
ess ness</w>
ht m</w>
ac o</w>
违 约</w>
早 已</w>
le ase</w>
富 裕</w>
官 长</w>
enc lo
人 類</w>
生 气</w>
反 复</w>
E x
ra p</w>
鐵 路</w>
内 斯堡</w>
可 疑</w>
the ories</w>
narco tics</w>
gradu ates</w>
gradu al</w>
ton nes</w>
运 人</w>
虚 拟</w>
ou l</w>
ex tin
经济 合作
锻 炼</w>
逆 转</w>
此 案</w>
大 纲</w>
sur prised</w>
at us</w>
t emp
libr aries</w>
mis cellan
guarante eing</w>
限 额</w>
生产 率</w>
当 年</w>
充分 考虑</w>
li ech
d ili
约翰 内斯堡</w>
hygi ene</w>
ti de</w>
革 新</w>
相 一致</w>
pow der</w>
barbad os</w>
高 层</w>
构 造</w>
oxy gen</w>
战 胜</w>
小组 讨论</w>
johan nes
W or
埃 尔</w>
局 部</w>
for t</w>
el iz
岩 石</w>
曲 线</w>
C O</w>
.. ..</w>
sponsor ing</w>
产 物</w>
一 轮</w>
studi o</w>
re moving</w>
mis t</w>
lif ting</w>
毛里 塔尼亚</w>
2 69</w>
k .</w>
地 向</w>
被 控</w>
本 周</w>
开发 银行</w>
开 幕
gu ests</w>
八 年</w>
miscellan eous</w>
hy bri
corpor al</w>
裁 判</w>
混 凝
al lo
吸 毒</w>
cri tics</w>
brief ed</w>
in comes</w>
ak i</w>
madagas car</w>
软 件
le gen
不可 分割</w>
都 市</w>
海 域</w>
共和 党</w>
r .</w>
7 50</w>
夫 妻</w>
农 药</w>
录 音</w>
at tainment</w>
u h</w>
b ric
节 日</w>
liech tenstein</w>
符 号</w>
早 些时候</w>
ten ing</w>
boli varian</w>
war ming</w>
l uck</w>
2 55</w>
st ones</w>
tex t
ro ster</w>
dum ping</w>
intim idation</w>
P S</w>
won dered</w>
web sites</w>
行 動</w>
旋 转</w>
noti fy</w>
易 于</w>
德 斯</w>
multin ational</w>
li ver</w>
j in</w>
criter ion</w>
re ception</w>
南 北</w>
tal ked</w>
几 项</w>
maur it
牛 奶</w>
con science</w>
johannes burg</w>
ang ular</w>
fo x</w>
警 卫</w>
惠 益</w>
cop per</w>
cess ation</w>
可 怜</w>
w ay
concentr ate</w>
水 准</w>
生命 权</w>
su spec
quot a</w>
pre cur
众 议院</w>
consi sted</w>
迈 克尔</w>
lo y
沙 漠</w>
困 扰</w>
olog ist</w>
技 術</w>
英 国
comple ting</w>
麻醉 品</w>
tin g
戈 兰</w>
日常 生活</w>
ve ter
2 54</w>
expl oring</w>
资金 来源</w>
第 八届</w>
一 整
北 京
connec tions</w>
信 誉</w>
p ile</w>
discus ses</w>
G e
维 斯</w>
po is
w u</w>
pres sures</w>
c ers</w>
芝加 哥</w>
mon itors</w>
sudan ese</w>
preci sion</w>
科学 研究</w>
claim ants</w>
car di
compar e</w>
前 后</w>
construc t</w>
ta i</w>
domin ated</w>
早 就</w>
大 使馆</w>
产 假</w>
hu a</w>
外 来</w>
S t
心 灵</w>
modul es</w>
. i</w>
s d</w>
养老 金</w>
mar gin</w>
ir regular</w>
am ne
接 种</w>
ab ide</w>
IN F</w>
被 判</w>
un a</w>
高等 法院</w>
迫 切</w>
2 58</w>
巴 士</w>
组 件</w>
大 陆
st om
j o</w>
一 世</w>
allevi ation</w>
订 单</w>
万 元</w>
en quiry</w>
巴 斯</w>
min er
incen tive</w>
差 不多</w>
curren cies</w>
名 叫</w>
冒 险</w>
any where</w>
6 8
斯 科
repe at</w>
2 1st</w>
心 情</w>
三 天</w>
sk a</w>
br on
share holders</w>
5 000</w>
调 解
expres sions</w>
liveli hood</w>
2 52</w>
妇女 组织</w>
变 为</w>
火 山</w>
不 法行为</w>
aim ing</w>
深 化</w>
布雷 顿</w>
spher ic</w>
infec tions</w>
contain er</w>
尼 亞</w>
dissemin ated</w>
关 岛</w>
proce eded</w>
le v
里 约
indirec tly</w>
文 档</w>
众 所
情 況</w>
阵 地</w>
移 植</w>
li vest
ch ains</w>
hosti le</w>
arch y</w>
四 十
person ally</w>
健康 状况</w>
reser vo
chea p</w>
药 物
figh ters</w>
explain s</w>
pul led</w>
an try</w>
17 .
min g
r as
探 测</w>
胁 迫</w>
legisl ature</w>
存 放</w>
一 间</w>
cl arity</w>
法 郎</w>
法律 顾问</w>
igno red</w>
fro zen</w>
differen tial</w>
Gen eral</w>
bel t</w>
ten ant</w>
伊斯 坦
隔离 墙</w>
pro pri
殴 打</w>
chec ks</w>
vir gin</w>
sh en
g ases</w>
deb ts</w>
arti ll
circl ed</w>
2 23</w>
機 場</w>
挂 钩</w>
加 利</w>
u sion</w>
hi red</w>
f ought</w>
无 力</w>
摩尔多 瓦
喜 爱</w>
众所 周知</w>
摩尔多瓦 共和国</w>
susp ect</w>
勇 敢</w>
perf ec
互 助</w>
per tin
饮 料</w>
ga z
urban ization</w>
par king</w>
mass ac
livest ock</w>
bac ked</w>
阿卜 杜
强 劲</w>
停 留</w>
sc at
pre fer
辩 护
事务 司</w>
in herit
stimul ate</w>
seg ments</w>
rais es</w>
me ta
各 省</w>
wat ched</w>
2. 8</w>
gre e
col li
电 力
uph old</w>
prohibi ting</w>
di ment</w>
some body</w>
g ates</w>
au to</w>
讨 厌</w>
分 配
au to
东 亚</w>
mu tilation</w>
en act
t sun
联 委会</w>
inter sessional</w>
交 谈</w>
pp .</w>
exp i
美 联
9 0
diff er</w>
深 感</w>
混凝 土</w>
restric tion</w>
议 案</w>
一致 意见</w>
ran ks</w>
n est</w>
j s
consul ted</w>
re strict</w>
nur sing</w>
pri de</w>
c av
行 李</w>
划 拨</w>
rad ical</w>
公 然</w>
减 灾</w>
bud dh
无 障碍</w>
发 电</w>
bul le
20 .
john son</w>
mort gage</w>
thor oughly</w>
sym bol
少 量</w>
塑 料</w>
univers ality</w>
bu b
di ves</w>
肌 肉</w>
tit les</w>
2 65</w>
阿 曼</w>
地 质</w>
ti les</w>
rel la</w>
宪 法
利 害
译 成</w>
heal th
fa thers</w>
2 38</w>
通 知
亿 元</w>
psy cho
战略 性</w>
col or
神 秘</w>
挖 掘</w>
ro ad
tr uck</w>
忍 受</w>
追 回</w>
约 定</w>
揭 示</w>
1. 7</w>
判 刑</w>
posi tively</w>
exce eding</w>
哈 兹</w>
tis sue</w>
mar g
atin gs</w>
种 群</w>
可 爱</w>
安 娜</w>
tibet an</w>
ad here</w>
暂 定</w>
luc ky</w>
大会 决议</w>
害 人</w>
传 统
es si
exce eded</w>
蓄 意</w>
l .</w>
con secu
印 尼</w>
分 区</w>
land mines</w>
artill ery</w>
婚 姻
trans late</w>
compu ting</w>
6 .5</w>
国 有</w>
vir gin
面 包</w>
元 区</w>
spon sor</w>
R A
quar terly</w>
填 写</w>
d angers</w>
采取 任何</w>
侦 查</w>
历史 性</w>
初 始</w>
discre tion</w>
in compatible</w>
de ferred</w>
est y</w>
海 啸</w>
安全 性</w>
soci ally</w>
ini an</w>
侧 重</w>
un aids</w>
abol ished</w>
下 滑</w>
stan bul</w>
objec tions</w>
视 觉</w>
欧 元区</w>
之 为</w>
sp ouses</w>
moder ate</w>
deman ded</w>
wh o
mean time</w>
impl ies</w>
commun i
參 加</w>
不 出</w>
身 心</w>
var ying</w>
serv ant</w>
read ily</w>
den y</w>
房 舍</w>
mo od</w>
糖 尿
tic kets</w>
sing ing</w>
物 流</w>
扫 描</w>
恐 怕</w>
unanim ously</w>
cc w</w>
第三 章</w>
时 应</w>
婚 礼</w>
一 无
注 入</w>
数 以
parlia ment
审 核</w>
号 法</w>
ge ments</w>
lea f</w>
dis closed</w>
宪法 法院</w>
发 病率</w>
sensi tivity</w>
retur nees</w>
季 节</w>
开 车</w>
第十二 届</w>
meteor ological</w>
cont est</w>
amb ular</w>
pre ambular</w>
斡 旋</w>
急 剧</w>
后 裔</w>
vol can
pa ul
fab ric
bl ame</w>
称 作</w>
t less</w>
上 班</w>
ci vic</w>
谈 谈</w>
y u</w>
保护 措施</w>
v a
ol dest</w>
cy ber
2 32</w>
阿布 哈兹</w>
ir ish</w>
defici ency</w>
起 初</w>
孤 儿</w>
respon dents</w>
绝 不</w>
紧 缩</w>
syn dro
屏 幕</w>
全 新</w>
see ds</w>
拍 卖</w>
liqu idation</w>
按 时</w>
壁 垒</w>
inherit ance</w>
glo be</w>
弹 性</w>
ag o
分 组</w>
an not
以 免</w>
星 系</w>
多 巴
一 款</w>
无 数</w>
支 票</w>
奥林匹 克
规 划
phenomen a</w>
de tri
教育 权</w>
平 行</w>
2 4.
att aches</w>
举 报</w>
继 承
our se</w>
ic c</w>
2 36</w>
c end
对 面</w>
h man</w>
r it
ic rc</w>
兴 奋</w>
人 会</w>
严格 遵守</w>
辅 导</w>
直 布罗
一 向</w>
传 媒</w>
ris en</w>
pip e</w>
in scri
严 肃</w>
p p</w>
在 场</w>
u l</w>
si veness</w>
th ri
aud itor</w>
相 當</w>
牧 师</w>
参 议员</w>
動 物</w>
preci ous</w>
格林 纳
p in</w>
威 尔</w>
re di
cooper ating</w>
数 字
nomin ations</w>
astr onom
6 7
pe ar
搜 查</w>
依赖 于</w>
revi sions</w>
dra ma</w>
cer d</w>
T D</w>
殖 民</w>
un mis</w>
attemp ting</w>
adoles cent</w>
accred ited</w>
暴 行</w>
吃 饭</w>
q i
prohi bits</w>
categ or
经 社</w>
不 停</w>
spac es</w>
生产 者</w>
航 天</w>
接 口</w>
主管 机构</w>
k ings</w>
薄 弱</w>
extra judicial</w>
D NA</w>
征 得</w>
而 定</w>
gal ax
繼 續</w>
偷 运</w>
intermedi ate</w>
do se</w>
tion ality</w>
市场 经济</w>
情 节</w>
小 规模</w>
rub ber</w>
gen tl
不 太
pro active</w>
en tic
le is
姐 妹</w>
2 31</w>
si lic
记 录
unf ccc</w>
exemp tion</w>
拘 禁</w>
拘 押</w>
里 奥</w>
密 码</w>
忧 虑</w>
adver sely</w>
g au
3 20</w>
ir ri
a bu
镇 压</w>
system ic</w>
liter ary</w>
ha bit</w>
通 往</w>
阿拉伯 语</w>
w ash</w>
连 贯</w>
军 方</w>
沙 特</w>
j ones</w>
门 口</w>
resp ects</w>
特别 法庭</w>
me tal
非洲 人</w>
氯 化</w>
尼 尔</w>
re bel</w>
al titu
生 育
im pression</w>
bi ot
americ as</w>
高度 重视</w>
se ab
defend ant</w>
n ou
mor atori
努力 实现</w>
im a</w>
着 眼
2 76</w>
答 应</w>
t t</w>
l an</w>
win ds</w>
ru ption</w>
ret re
贝 巴</w>
吸 取</w>
enti ality</w>
hon g
公 安
ma h
basi cally</w>
ach ment</w>
出 席会议</w>
舒 适</w>
sta h</w>
见 面</w>
sty les</w>
om on</w>
ab u</w>
在此 期间</w>
斯 亚
fran cisco</w>
有 效率</w>
同 盟</w>
ear marked</w>
马 克
多元 化</w>
伊 斯</w>
secretari ats</w>
oun ce</w>
neu ro
资 讯
贯 彻</w>
minu stah</w>
k ni
一 大
allevi ate</w>
商 标</w>
界 面</w>
拿 到</w>
inter dependence</w>
accumul ation</w>
前 者</w>
trin idad</w>
immun ities</w>
direc tive</w>
depos ited</w>
cy cles</w>
学 习
defe ated</w>
depart mental</w>
appropri ations</w>
毫 不
军 备
人 选</w>
sex u
00 1</w>
路 径</w>
life time</w>
econom ists</w>
军备 竞赛</w>
增 加
projec tions</w>
大 麻</w>
ambi gu
伯 爵</w>
win ner</w>
dee per</w>
斯亚 贝巴</w>
展 现</w>
met als</w>
ban ned</w>
面 试</w>
神 圣</w>
seg reg
eng ines</w>
chick en</w>
demonstr ations</w>
糖尿 病</w>
真 理</w>
leg ality</w>
便 利
bot tle</w>
an ch
游 行</w>
doctr ine</w>
flu id</w>
更 是</w>
cred its</w>
chur ches</w>
d d</w>
2 24</w>
空 白</w>
ain e</w>
编 入</w>
evol ved</w>
design ate</w>
c f
19 33</w>
indi ana</w>
gol d
belon gs</w>
ec lac</w>
药物 滥用</w>
女 王</w>
ric o</w>
生产 性</w>
隐 藏</w>
foren sic</w>
premi er</w>
tan ces</w>
consci ousness</w>
am is
大 程度</w>
取 向</w>
M A
自 卫</w>
约 会</w>
qual itative</w>
ing er</w>
fil ing</w>
里程 碑</w>
parti cles</w>
j et</w>
抚 养</w>
从 不</w>
ã o</w>
recei vable</w>
compos ite</w>
负 面</w>
述 及</w>
shel ters</w>
伊斯坦 布尔</w>
imperi al</w>
H ar
C ol
電 視
市 政</w>
dro ve</w>
U n
艰 苦</w>
fif teenth</w>
L A
2 44</w>
机 械
不 敢</w>
mon d</w>
em bo
住 宿</w>
ti ans</w>
cred itor</w>
树 木</w>
ple asant</w>
i stanbul</w>
um b
保 卫</w>
tremend ous</w>
贫 民
jac ent</w>
am ong
选择 性</w>
短 暂</w>
性别 歧视</w>
宣 告</w>
年 内</w>
供 给</w>
ali ke</w>
社 团</w>
律 师
兑 现</w>
外交 政策</w>
incum bent</w>
陆 军</w>
sur ge</w>
全 额</w>
不 會</w>
im o</w>
hi re</w>
confid entiality</w>
平方 米</w>
invest or</w>
亞 洲</w>
多边 贸易</w>
视 角</w>
形 容</w>
res em
p ig
dec e
离 子</w>
佛 罗
to b
li a</w>
省 级</w>
s enti
2 47</w>
亚 的
亚的 斯亚贝巴</w>
em in
do s</w>
老 鼠</w>
令人 鼓舞</w>
mal dives</w>
英 寸</w>
m .
高速 公路</w>
措 词</w>
传 达</w>
mon t
commen ted</w>
多 样</w>
ing redi
修 订
chair men</w>
调查 表</w>
ma ker</w>
频 道</w>
雇 佣</w>
惊 人</w>
unc lear</w>
comb ine</w>
红十 字</w>
ad o
reason ably</w>
at ri
gri d</w>
防 护</w>
ha r</w>
建 築</w>
har der</w>
高 效率</w>
保险 公司</w>
策 划</w>
car ic
bo ats</w>
排 列</w>
处 长</w>
r h
2 61</w>
选 手</w>
cd m</w>
没 什么</w>
弱 点</w>
ta bly</w>
gi br
ge ar</w>
两 周</w>
下 属</w>
阿 里</w>
联合国 粮食
联合国粮食 及
联合国粮食及 农业
联合国粮食及农业 组织</w>
revis e</w>
b re</w>
un cle</w>
add is</w>
accur ately</w>
很 长</w>
sp an</w>
疯 狂</w>
pertin ent</w>
horizon tal</w>
di a
tun nel</w>
individu ally</w>
成 千
haz ards</w>
自 主权</w>
re strain
among st</w>
pack ages</w>
annex ed</w>
服 役</w>
vi sibility</w>
19 37</w>
能 夠</w>
2 46</w>
dem ol
先 后</w>
通知 书</w>
天 文</w>
2 34</w>
弟 弟</w>
r ating</w>
回 忆</w>
ele mentary</w>
开 罗</w>
challeng ed</w>
m on</w>
上 万</w>
safeguar ding</w>
19 36</w>
跨 越</w>
rwan dan</w>
en qui
m t
explo sion</w>
b am
hi er
flu or
e vic
dee pen
g ay</w>
经 典</w>
联 苏</w>
居 留</w>
appro ached</w>
日 后</w>
30 5</w>
consecu tive</w>
民 航</w>
remn ants</w>
营 业</w>
相 称</w>
理 論</w>
explan ations</w>
el ed</w>
伯 利
no ble</w>
上 限</w>
Q u
非 法
suspec ts</w>
li ked</w>
供应 链</w>
commission ed</w>
受 损</w>
holid ays</w>
旅 行
第十 条</w>
万 名</w>
guy ana</w>
mis conduct</w>
concep tual</w>
bret ton</w>
大 于</w>
inf rin
hy dr
派 驻</w>
fil ter</w>
ko w
加 蓬</w>
中央 政府</w>
p hosp
n an</w>
inf lic
走 上</w>
扭 曲</w>
奴 隶
协商 会议</w>
利 用
tourna ment</w>
tan cy</w>
sym pa
ad jacent</w>
拥 挤</w>
尔 顿</w>
在 家</w>
wel l
脂 肪</w>
合 金</w>
in ability</w>
amne sty</w>
窗 户</w>
懂 得</w>
容 量</w>
剂 量</w>
暴力 事件</w>
end an
cu b
affir med</w>
ce ased</w>
Jo hn</w>
征 税</w>
tri bal</w>
push ed</w>
o tic</w>
6 ,000</w>
二 级</w>
wi ves</w>
aggreg ate</w>
三 角</w>
nar ro
dis played</w>
cent red</w>
let es</w>
开 心</w>
含 水
P V
泡 沫</w>
医疗 保险</w>
巴 尔
ab aba</w>
走 廊</w>
动 产</w>
以色列 政府</w>
ga ret
att ach</w>
on ian</w>
fem in
be er</w>
经常 性</w>
re z</w>
q ing</w>
雷 达</w>
expe dite</w>
celebr ate</w>
y o</w>
fer tili
册 子</w>
publ icity</w>
冬 天</w>
x v</w>
in al</w>
deb tor</w>
环境 影响</w>
精 度</w>
ce iling</w>
wor ship</w>
t z</w>
x ii</w>
希 尔</w>
分 別</w>
ver n</w>
re ments</w>
her o</w>
語 言</w>
演 奏</w>
gi bility</w>
&apos; i</w>
pain t</w>
down load</w>
repar ation</w>
dist r</w>
应 力</w>
cr ash</w>
产 值</w>
战 役</w>
rec ourse</w>
19 38</w>
入 口</w>
並 在</w>
lif ted</w>
in consistent</w>
尼亚 州</w>
enact ment</w>
activi sts</w>
点 击</w>
defin ite</w>
长 大</w>
实 时</w>
教 材</w>
geograph y</w>
enem ies</w>
accep ting</w>
起 源</w>
避 孕
直布罗 陀</w>
amis om</w>
外 汇</w>
clin ton</w>
事 者</w>
vege tables</w>
plan ets</w>
表 述</w>
往 来</w>
宗教 信仰</w>
公 爵</w>
pap ua</w>
5 3
10 th</w>
传 送</w>
provi der</w>
pre cau
demonstr ates</w>
我 方</w>
操 纵</w>
contribu tors</w>
ath letes</w>
2 75</w>
leg acy</w>
ad mi
cor rid
音 樂
rad ar</w>
it ted</w>
一 艘</w>
傳 統</w>
一 倍</w>
am p</w>
express ly</w>
祖 国</w>
標 準</w>
syndro me</w>
犯罪 活动</w>
occurren ce</w>
E S
ner v
patro ls</w>
chan ces</w>
毒 素</w>
寻 常</w>
2 19</w>
参 见</w>
il legally</w>
dev ast
执行 机构</w>
人民 代表大会</w>
gr ace</w>
o sc
立法 机构</w>
汽 油</w>
時 候</w>
常任 理事</w>
多 元</w>
pharmaceu tical</w>
trage dy</w>
endeav ours</w>
俄 国</w>
inf antry</w>
聯 賽</w>
veri fied</w>
ar ming</w>
C .4</w>
民主 化</w>
predec essor</w>
analy sing</w>
得 起</w>
remain der</w>
in vention</w>
tra gic</w>
inven tories</w>
docu mentary</w>
B er
交 存</w>
一 对</w>
考 验</w>
也 就是说</w>
大 約</w>
program matic</w>
analy ze</w>
gener ous</w>
接 受
检察 院</w>
斯 托
機 構</w>
纯 粹</w>
fi ber</w>
here with</w>
火 器</w>
wor ried</w>
sla ve</w>
introduc tory</w>
under lines</w>
fol k</w>
该 次</w>
z o</w>
激 光</w>
noti fied</w>
cancell ation</w>
流 域</w>
broad ca
aggres sive</w>
预 报</w>
活 动
永 久
respec ting</w>
食 用</w>
附 有</w>
步 伐</w>
harmon ious</w>
ec ho
i us</w>
b acks</w>
cros sed</w>
i ents</w>
tre ating</w>
春 天</w>
coun ties</w>
out break</w>
scri pt</w>
reci pro
an xi
mir ror</w>
manufac tured</w>
新 几内亚</w>
利 益
pre clu
克 林
本 土</w>
恆 星</w>
公 顷</w>
毁 坏</w>
wh ol
a es
巴 哈马</w>
不 清</w>
carri age</w>
pul se</w>
jeop ardi
承担 责任</w>
保 养</w>
under stand
s si
persist ence</w>
2 45</w>
保持 一致</w>
il and</w>
at ro
成千 上万</w>
prison er</w>
indic ative</w>
hand book</w>
compe ting</w>
rac ist</w>
an alo
多 方面</w>
3 38</w>
强制 执行</w>
stol en</w>
西 斯</w>
而 来</w>
索 取</w>
厨 房</w>
mar ital</w>
车 队</w>
m aria</w>
野 生</w>
遵 约</w>
疗 效</w>
sh ine</w>
maurit ania</w>
illiter acy</w>
car to
brid ges</w>
0. 7</w>
联合 行动</w>
密 集</w>
p ounds</w>
l um
民 政</w>
mer it</w>
疼 痛</w>
parliament arians</w>
的 是</w>
hydro gen</w>
devast ating</w>
re location</w>
- --</w>
这 点</w>
不 论
k har
be ars</w>
密切 相关</w>
an gu
特 有</w>
激 发</w>
亚 历
现 况</w>
minim al</w>
autom ob
莱 德</w>
相 成</w>
ou b
rejec tion</w>
露 出</w>
被 害人</w>
私 有化</w>
scho ol
helicop ter</w>
ha w
技术 性</w>
ori de</w>
indone sian</w>
fellow ship</w>
结 核</w>
r ho
而 成</w>
多 方</w>
克 斯坦共和国</w>
D V
私 人
pre requisite</w>
这 条</w>
扶 贫</w>
书 记
commen d</w>
clu sters</w>
结构 调整</w>
岛 上</w>
recycl ing</w>
ten ds</w>
cou pled</w>
般 的</w>
启 用</w>
tob ago</w>
答 辩</w>
gra m</w>
第 八</w>
急 性</w>
2 90</w>
periodic ally</w>
f arms</w>
内 心</w>
ple dge</w>
acceler ating</w>
endor sement</w>
ot rop
com prised</w>
作 证</w>
stra w</w>
re new</w>
7 .5</w>
now ad
获 准</w>
wo o
r m
S er
q aida</w>
i ka</w>
acce de</w>
vol tage</w>
威 士
un de
can al</w>
总 局</w>
制 成</w>
期 刊</w>
平等 权利</w>
s cul
声 援</w>
whe at</w>
尤 为</w>
s na
s anta</w>
recip ients</w>
el ines</w>
R ob
几 位</w>
par aly
gradu ated</w>
集 体
ol ate</w>
r ounds</w>
3 30</w>
ti ary</w>
u mo
审 批</w>
modi fy</w>
mil est
controversi al</w>
避 孕</w>
s ca
ad mit</w>
实 用
选 票</w>
fri ger
post al</w>
西 亚
相 辅
6 87</w>
讲 座</w>
_ _
真 寺</w>
depu ties</w>
re friger
相辅 相成</w>
he arts</w>
社会 保险</w>
當 地</w>
收 获</w>
清 真寺</w>
compil ed</w>
sett lers</w>
十 字
部长 会议</w>
th ful</w>
chi at
n ish</w>
coo king</w>
6 9
彻 底
susp ici
par ks</w>
ci garet
j e</w>
eliz abeth</w>
cre am</w>
问 卷</w>
这 句</w>
des per
人 工
dis k</w>
de struc
一 处</w>
l ad
小 册子</w>
tr ace</w>
soci o
姐 姐</w>
crimin als</w>
inspec tor</w>
着眼 于</w>
preser ving</w>
temper atures</w>
stri kes</w>
avo id
6 .3</w>
限 制性</w>
漫 长</w>
pass es</w>
电 脑
a ero
特 立
after wards</w>
规 格</w>
俄 羅
eli gibility</w>
di oxide</w>
B u
mer chan
资讯 科技</w>
舞 蹈</w>
应 收款</w>
k an</w>
晋 升</w>
kil ome
2 57</w>
nowad ays</w>
mou se</w>
酒 吧</w>
父 親</w>
第五十 四届</w>
gibr altar</w>
执 政</w>
务 部</w>
vari ance</w>
粮食 计划署</w>
世界 粮食计划署</w>
j in
咱 们</w>
hybri d</w>
预 审</w>
v on</w>
restric tive</w>
invo ked</w>
ce b</w>
cat astro
放 缓</w>
专 注</w>
10 0%</w>
某种 程度</w>
中 欧</w>
postpon ed</w>
om an</w>
5 .4</w>
统计 资料</w>
dan iel</w>
捕 鱼</w>
一 根</w>
distingu ish</w>
mix ture</w>
多巴 哥</w>
3. 6</w>
宣 读</w>
re st
dr a</w>
N G
ero sion</w>
自 豪</w>
综 述</w>
前 途</w>
s am</w>
l end</w>
3 000</w>
re cep
author ize</w>
校 园</w>
发 布
psy chiat
d ar</w>
M on
智 力</w>
2 56</w>
3 65</w>
管理 工作</w>
alli ed</w>
mat ches</w>
hol dings</w>
standardi zation</w>
low s</w>
经 由</w>
dis count</w>
classi c</w>
日 程</w>
ran dom</w>
mathemati cal</w>
bad ly</w>
贵 国</w>
vi an</w>
am p
食 品
队 员</w>
accompl ish</w>
vari es</w>
liqu idity</w>
a to</w>
剧 院</w>
tim ber</w>
injec tion</w>
货币 基金</w>
在 职</w>
car ol
12 67</w>
肇 事者</w>
ser bian</w>
所 起</w>
公 園</w>
ra ge</w>
al p
因 子</w>
不同 于</w>
os ity</w>
il le</w>
汲 取</w>
侦 察
一 次
liber ian</w>
所 定</w>
und oub
occasi onally</w>
tou rists</w>
speci ally</w>
dele te</w>
油 价</w>
st airs</w>
dec or
领 事</w>
联合国 安全
联合国安全 理事会</w>
研究 生</w>
symposi um</w>
cru de</w>
资 料
称 之为</w>
黄 色</w>
y p</w>
沮 丧</w>
instal ment</w>
第十 三届</w>
意 识
增 大</w>
tar ily</w>
gradu ation</w>
有 關</w>
干 净</w>
兵 役</w>
研 训</w>
放 置</w>
ur y</w>
quir ing</w>
近 来</w>
人 质</w>
virgin ia</w>
moratori um</w>
驱 逐
闭 幕</w>
简 短</w>
创 意</w>
不 利于</w>
emplo y</w>
ar ose</w>
v ine</w>
don ald</w>
19 60s</w>
vac ation</w>
ur i</w>
sle eping</w>
i i
bas e
毁 灭</w>
哈 利</w>
aw ai
ambass ad
de mining</w>
s cour
mater i
刑事 犯罪</w>
今 天
equ ation</w>
示 威
澳 门</w>
白 人</w>
she ets</w>
immun e</w>
bo xes</w>
受益 者</w>
ch oc
w .</w>
页 面</w>
二 条</w>
ko v</w>
咖 啡
西班牙 文</w>
慢 性</w>
除此 之外</w>
第二 期</w>
is a</w>
采 集</w>
垄 断</w>
coun ts</w>
an th
10 0
饭 店</w>
史 蒂
extr action</w>
qu an
industri alized</w>
f u</w>
餐 馆</w>
overwhel ming</w>
li ps</w>
和平 部队</w>
发展 部</w>
bhu tan</w>
特 丹</w>
col ors</w>
第八 条</w>
d ak
邻 居</w>
E R
鹿 特丹</w>
附 表</w>
一 番</w>
p ou
mind ful</w>
in deb
re publ
购 物</w>
selec tive</w>
a qui
完 工</w>
vac ant</w>
advoc ates</w>
our ing</w>
perpetr ated</w>
kan sas</w>
瑟 夫</w>
土著 居民</w>
endor ses</w>
出 任</w>
contex ts</w>
愿 景</w>
必要 条件</w>
学 年</w>
从 业
inter regional</w>
10 ,
详细 资料</w>
c ence</w>
铲 除</w>
organ ised</w>
传染 性</w>
ter dam</w>
复 审</w>
E S</w>
vo ices</w>
ri al</w>
por ter</w>
管理 部</w>
瑞 士
星期 六</w>
合 同
关 系
仆 人</w>
sup pose</w>
. 10</w>
终 身</w>
演 唱</w>
四 名</w>
G C.
w en</w>
sub ordin
值得 注意</w>
travel ling</w>
部 位</w>
五 名</w>
火 星</w>
bon n</w>
把 握</w>
卡 拉
communi qu
ap ped</w>
刊 登</w>
commen ce</w>
auth entic
ad mir
ran ked</w>
不 住</w>
28 3</w>
罪 名</w>
活 着</w>
地 铁</w>
p ag
第四 章</w>
poc ket</w>
em bed
功 率</w>
影 像</w>
organ isms</w>
butt on</w>
6 50</w>
附 带</w>
特立 尼
ar c</w>
盈 余</w>
破坏 性</w>
切 尔
bre ath</w>
坦桑 尼亚</w>
波 恩</w>
提 示</w>
a res</w>
ex am</w>
e e
索 托</w>
D ec
财政 年度</w>
定 价</w>
univers ally</w>
compati bility</w>
莎 白</w>
注 销</w>
最 长</w>
pun ishable</w>
p raise</w>
meth yl</w>
mac ao</w>
ham med</w>
嫌疑 人</w>
19 00</w>
pre feren
negl ect</w>
on y
18 th</w>
gi fts</w>
clin ics</w>
p ump</w>
di stant</w>
ow a</w>
rot terdam</w>
roc ks</w>
尽量 减少</w>
介 绍
仅 限于</w>
ste am</w>
colum bia</w>
austri an</w>
syn chron
sol omon</w>
mor gan</w>
deliber ate</w>
指 望</w>
sophistic ated</w>
deman ding</w>
han dic
0 .5</w>
幼 儿
射 击</w>
味 道</w>
分 项</w>
犯罪 者</w>
19 18</w>
合 办</w>
dissemin ating</w>
commit ting</w>
5 50</w>
误 解</w>
w c</w>
shar ply</w>
伯 利</w>
sub programmes</w>
筹备 会议</w>
大 气
char ging</w>
2 6.
习惯 法</w>
seab ed</w>
部 隊</w>
侵 权
L u
break fast</w>
k le</w>
第一 位</w>
免 于</w>
caric om</w>
决 赛</w>
or ange</w>
expend able</w>
新闻 界</w>
总 会</w>
加 以
en tail</w>
dram atically</w>
条 目</w>
理 事
phot os</w>
手 里</w>
2 49</w>
兵 力</w>
tap e</w>
is o</w>
assum ing</w>
policy making</w>
con fined</w>
走 出</w>
无 可
时 尚</w>
preser ved</w>
o z
对 照</w>
po ps</w>
货 运</w>
advoc ated</w>
28 9</w>
纳 尔</w>
克 莱
highligh ting</w>
cancel led</w>
强 行</w>
in d
cryst al</w>
ti um</w>
inc itement</w>
行政 长官</w>
scho oling</w>
k u</w>
fic tion</w>
J u
战略 规划</w>
vari ation</w>
o id</w>
巴布 亚
发表 意见</w>
under tak
火 灾</w>
出 入</w>
期 徒刑</w>
佛 教</w>
意识 形态</w>
催 化
控 告</w>
名 词</w>
敏 感
巴布亚 新几内亚</w>
tsun ami</w>
correspon dence</w>
教 室</w>
cooper atives</w>
confisc ation</w>
O ri
al ert</w>
節 目</w>
一 枚</w>
w p.
環 境</w>
g i</w>
re placing</w>
for gotten</w>
泰 勒</w>
增 效</w>
viol ating</w>
fla v
affir m
圣诞 节</w>
im ply</w>
hard ship</w>
fos sil</w>
ba i</w>
服 从</w>
V I</w>
陪 同</w>
志愿 者</w>
引 人
comb ining</w>
20 30</w>
excell ence</w>
ain ed</w>
快 速
echn ology</w>
显 而易
sho ot</w>
shi re</w>
显而易 见</w>
situ ated</w>
es hip</w>
re produced</w>
counter measures</w>
be aten</w>
第二十 三届</w>
foun der</w>
pric ing</w>
7 7
杀 人</w>
飞 越</w>
deser ve</w>
D ist
dis order</w>
ab original</w>
演 习</w>
对 外
加 紧</w>
physi cally</w>
helicop ters</w>
abstr act</w>
女 工</w>
飞 离</w>
斯 塔
doub ts</w>
em power</w>
ur us</w>
ch ester</w>
stockpil ing</w>
leis ure</w>
ed ward</w>
控制 系统</w>
or a</w>
潜 能</w>
最 具</w>
un fic
man s</w>
i tive</w>
所 罗
5 5
s cep
h ills</w>
正 好</w>
tan g</w>
降 至</w>
pan demic</w>
ukra inian</w>
prosecu tions</w>
ni e</w>
defici encies</w>
文 盲</w>
微 软</w>
unfic yp</w>
生物 武器</w>
wal es</w>
deleg ate</w>
c .4</w>
bis hop</w>
手 指</w>
戏 剧</w>
eg g</w>
樂 團</w>
a par
2 59</w>
温 暖</w>
最低 工资</w>
I C</w>
sh ells</w>
并 入</w>
ti p</w>
co stly</w>
W G</w>
co c
arre sts</w>
ver ies</w>
shor ter</w>
ligh t
dis cover</w>
awai ting</w>
草 拟</w>
wid th</w>
零 售
第六十 六</w>
耐 心</w>
红十字 会</w>
淡 水</w>
op ens</w>
ic ked</w>
i z</w>
comple ment
红十字 国际
红十字国际 委员会</w>
現 在</w>
大 门</w>
min ds</w>
钥 匙</w>
相 处</w>
树 立</w>
í a</w>
基 线</w>
i k
de vi
l ac
re ject</w>
cum ul
consolid ating</w>
结 核
c mp</w>
魅 力</w>
特 许</w>
水 道</w>
发言 稿</w>
zh en</w>
e ars</w>
室 内</w>
asi ve</w>
weak ness</w>
2 29</w>
阿拉伯 人</w>
第十二 条</w>
研究 者</w>
保 人</w>
sup press</w>
被 告
第二 次世界大战</w>
欺 骗</w>
效 能</w>
m ati
g lu
白 宫</w>
凯 恩</w>
啤 酒</w>
method ological</w>
class room</w>
as m</w>
人 称</w>
道 歉</w>
克 力</w>
等 到</w>
rec k
investig ators</w>
大 学
弗 朗
we st
环境 卫生</w>
after math</w>
合理 化</w>
西 北</w>
核 心
pl enty</w>
chu an</w>
布 拉</w>
单 个</w>
总 之</w>
vol umes</w>
im posing</w>
时 光</w>
s word</w>
in sec
vend ors</w>
bi ology</w>
封 闭</w>
mon ies</w>
chec ked</w>
bat tery</w>
hop ing</w>
委 任</w>
sk ir
al ter</w>
缔 约</w>
dep ic
2 1.
继续 加强</w>
战略 目标</w>
re actions</w>
Dist r</w>
B an
車 站</w>
土地 利用</w>
ec o</w>
财 力</w>
炮 弹</w>
190 7</w>
爱 德
死 去</w>
山 大</w>
w i</w>
undoub tedly</w>
le x</w>
exclu de</w>
联 盟
pe p
y .
volati le</w>
注 明</w>
第一 批</w>
s light</w>
champi on</w>
borro wing</w>
arre ars</w>
打 死</w>
wh is
vari ables</w>
st ell
si sters</w>
contam inated</w>
战略 方针</w>
19 19</w>
后 期</w>
contr acted</w>
导 演</w>
一 樣</w>
发电 机</w>
四 分之一</w>
six teenth</w>
大陆 架</w>
in ception</w>
推 定</w>
in discriminate</w>
轰 炸</w>
沃 尔
余 留</w>
gu a</w>
al be
inev itable</w>
eigh teenth</w>
船 上</w>
新闻 稿</w>
赋 权</w>
击 败</w>
vac u
ev al</w>
inter actions</w>
审 视</w>
par a
happen ing</w>
2 62</w>
ti ously</w>
pre domin
长 远</w>
裁 撤</w>
基 石</w>
休 假</w>
跨 部门</w>
竞争 性</w>
殖民 主义</w>
发 射
atmo spheric</w>
accompl ishment</w>
wrong ful</w>
l u</w>
2 39</w>
维 尔
so c</w>
c es
上 网</w>
georgi an</w>
aliz es</w>
知 名
审 判
分析 师</w>
hun g</w>
gener ic</w>
c b</w>
第二十 届</w>
y ours</w>
y cle</w>
emer ge</w>
C P</w>
mo ther
di version</w>
B e
关键 因素</w>
ten ded</w>
据 估计</w>
determin es</w>
藝 術</w>
叛 乱</w>
polit an</w>
critici zed</w>
coun ted</w>
bulle tin</w>
b ols</w>
tri ps</w>
拓 展</w>
un certain</w>
k w
创造 性</w>
p raised</w>
国家 计划</w>
一 并</w>
受到 限制</w>
公 职人员</w>
in cl
hol es</w>
con fusion</w>
卫 队</w>
read ers</w>
movi es</w>
off shore</w>
nuc le
decentr alized</w>
眼 前</w>
alex ander</w>
加 迪
出 租
污 水</w>
有 形</w>
含水 层</w>
se al</w>
头 上</w>
伊 尔</w>
in qu
unf air</w>
19 25</w>
意大 利
r hy
ma c</w>
cur ve</w>
28 8</w>
mo des</w>
inser t</w>
ab dul
艰 巨</w>
succ essive</w>
jo e</w>
L o
3 80</w>
correc ted</w>
b old</w>
目 睹</w>
clou ds</w>
amen ding</w>
19 35</w>
以 使</w>
日本 政府</w>
无 须</w>
安 盟</w>
大 声</w>
an dre
高 校</w>
舒 服</w>
洛 斯</w>
信用 证</w>
第七 章</w>
为 例</w>
er up
anthro po
和 发展
透 過</w>
贸易 和发展
贸易和发展 会议</w>
联合国 贸易和发展会议</w>
生 產</w>
尽 全力</w>
国际 贸易
便利 化</w>
numer ical</w>
moun ted</w>
four teenth</w>
appoin ting</w>
管理 员</w>
intelli gent</w>
win d
两 倍</w>
p ack</w>
disman t
过 多</w>
负 担
deci ding</w>
b are
一 声</w>
molec ular</w>
encoura gement</w>
innov ations</w>
choo sing</w>
美联 储</w>
多 久</w>
外 汇
出版 社</w>
议 会
毕 竟</w>
天 内</w>
出 资</w>
三 角
特立尼 达
情 景</w>
在 外</w>
seven teenth</w>
celebr ation</w>
l us
昨 日</w>
印度 洋</w>
医 药</w>
air ports</w>
tack ling</w>
om ing</w>
17 01</w>
金融 服务</w>
头 脑</w>
否 决</w>
新 鲜</w>
journ alist</w>
fres h
S P
劳动 法</w>
rebel s</w>
摩 纳
之 後
psych ology</w>
捷 克</w>
承 办</w>
奧 林匹
mar c
椅 子</w>
fif teen</w>
cor relation</w>
at tained</w>
大 胆</w>
fru its</w>
tion er</w>
wild life</w>
第 九</w>
oper a</w>
infec tious</w>
ec raft</w>
chair manship</w>
bi om
标 识</w>
地 板</w>
g ating</w>
半 数</w>
an tine</w>
侵权 行为</w>
stop ping</w>
bo ar
4. 6</w>
thre w</w>
ji m</w>
cle ared</w>
届 满</w>
4 4
生物 学</w>
la bel</w>
appor tion
I X</w>
查 尔斯</w>
斯 顿</w>
实 况</w>
ha bits</w>
選 擇</w>
下 届</w>
饮 水</w>
温 和</w>
限 定</w>
一 节</w>
gab on</w>
就 此
团 结
巧 克力</w>
y n</w>
shir t</w>
po ly</w>
F or
申请 书</w>
司法 程序</w>
新生 儿</w>
急 需</w>
ter ies</w>
mercen aries</w>
文 物</w>
preferen tial</w>
vari ations</w>
球 隊</w>
此 处</w>
nigh ts</w>
ab sent</w>
tari ffs</w>
性 行为</w>
奥 尔
分 解</w>
p ays</w>
fir stly</w>
argen tine</w>
sym bols</w>
ste pped</w>
in complete</w>
舰 队</w>
系统 性</w>
au x</w>
节 点</w>
理事 国</w>
魔 法</w>
金 伯利</w>
仿 佛</w>
l est</w>
ari os</w>
联 体</w>
be side</w>
an gel</w>
王 朝</w>
复 合</w>
á n</w>
pack aging</w>
特立尼达 和
特立尼达和 多巴哥</w>
战 士</w>
impe tus</w>
base ball</w>
永久 性</w>
乃 至</w>
trig ger</w>
ro o
jan e</w>
ab ra
AC. 109</w>
造 林</w>
oc ity</w>
请 愿</w>
li ti
边 界
日 向</w>
不 行</w>
ph a</w>
bur ned</w>
业 主</w>
九 个</w>
s é</w>
in vi
free zing</w>
禁 产</w>
冈 比亚</w>
ste ph
st em
vir al</w>
ic ed</w>
7 .1</w>
不 能
train ers</w>
tou ched</w>
l acked</w>
e rec
接 管</w>
ne ts</w>
gra des</w>
逃 避</w>
sen ator</w>
el le</w>
un ita</w>
new s
葡萄 酒</w>
不 上</w>
shoc ks</w>
stro ke</w>
货币 政策</w>
sh an
ign ore</w>
2 72</w>
ca the
19 17</w>
29 6</w>
l ung</w>
p act</w>
harmon ize</w>
g ged</w>
DV D</w>
普遍 存在</w>
S C</w>
conveni ence</w>
消耗 性</w>
trans formed</w>
on er</w>
变 形</w>
rus h</w>
res cent</w>
bur y</w>
报 价</w>
I T
val en
定居 者</w>
illustr ated</w>
histor ically</w>
v as
ri gi
ish u</w>
simpli fied</w>
老 挝
传 说</w>
exten ds</w>
some where</w>
第二 款</w>
矿 业</w>
性 健康</w>
运 载
亚 共和国</w>
收 藏</w>
信用 卡</w>
pra g
con sor
第一 份</w>
生 理</w>
ant on
集 装
ma x</w>
酒 精</w>
帽 子</w>
不 太</w>
undertak ings</w>
ph ased</w>
irri gation</w>
assi stants</w>
全 民</w>
全 力支持</w>
reco sting</w>
制 度
renov ation</w>
colon el</w>
as ks</w>
apportion ment</w>
市 区</w>
wh it
证 明
压 缩</w>
under mined</w>
mer ged</w>
cred ited</w>
承包 者</w>
床 上</w>
东 方</w>
multilater alism</w>
m ers</w>
废 料</w>
3 16</w>
specific ations</w>
sign atories</w>
fru it
进 出</w>
驾 驶
球 員</w>
无 意</w>
伪 造</w>
f le</w>
ri ding</w>
S S</w>
零 售</w>
之 友</w>
不 懈</w>
daugh ters</w>
折 磨</w>
ful ness</w>
2 63</w>
联 大</w>
特 里</w>
水 中</w>
floo ds</w>
el essness</w>
监护 人</w>
vit am
独 联体</w>
湖 区</w>
mo s
電 子</w>
miner als</w>
exten sively</w>
ac le</w>
原 件</w>
volun tarily</w>
19 32</w>
區 域</w>
hor n</w>
success es</w>
结核 病</w>
日 刊</w>
九 年</w>
evacu ation</w>
human kind</w>
评 级</w>
常务 委员会</w>
不论 是</w>
molec ul
ar ization</w>
war fare</w>
drag on</w>
ac. 109</w>
in tra
30 ,000</w>
mi ke</w>
联盟 共和国</w>
法 制</w>
定 稿</w>
印第 安
南斯拉夫 联盟共和国</w>
work plan</w>
贯 穿</w>
两 家</w>
manufactu rer</w>
con v
逾 期</w>
同 性</w>
贸易 协定</w>
偶 尔</w>
不 限</w>
farm er</w>
ass ing</w>
圣 经</w>
四 次</w>
over coming</w>
descri bing</w>
al ign</w>
加迪 沙</w>
低 成本</w>
la sted</w>
第二 项</w>
祈 祷</w>
P D
时 所</w>
ge ological</w>
切实 有效</w>
hun ting</w>
chec king</w>
基础 教育</w>
2 5.
老挝 人民
sp reading</w>
ca ke</w>
過 程</w>
tol l</w>
fi res</w>
路易 斯</w>
repor ters</w>
估 值</w>
du ke</w>
y s
un a
re ward</w>
perfec tly</w>
通 行</w>
新 建</w>
大 屠杀</w>
nor m</w>
dis mis
explo ded</w>
诗 人</w>
ta bl
28 5</w>
be am</w>
mo gad
affirm ative</w>
3 10</w>
第二 节</w>
spo ts</w>
correc tion</w>
chair persons</w>
assign ments</w>
obser ving</w>
最 有</w>
四 周</w>
hel lo</w>
fir ing</w>
f ati
dark ness</w>
苏 里
危险 废物</w>
六 月</w>
si ck
on es
dres sed</w>
最 少</w>
大会 堂</w>
ri gor
char ity</w>
susp icious</w>
she ep</w>
该 处</w>
im men
identi fies</w>
极 其
val ve</w>
隐 私</w>
培训 中心</w>
po le</w>
ba hamas</w>
内 政</w>
书记 官</w>
un changed</w>
升 高</w>
写 道</w>
2. 9</w>
多 尼亚</w>
一 新</w>
一 层</w>
socio economic</w>
fac tories</w>
cor n</w>
单 词</w>
over due</w>
侵 入</w>
otrop ic</w>
a ven
mogad ishu</w>
民 用
人 家</w>
6 4
6 .4</w>
既 有</w>
tt le</w>
s ke
fl ash</w>
阿 鲁
百 万美元</w>
帮 忙</w>
cp r</w>
纺 织
特 尔</w>
气 旋</w>
e ter
种族 隔离</w>
检查 站</w>
保护 环境</w>
wi reless</w>
f red</w>
消 防
摩 加迪沙</w>
L in
voc al</w>
sm ell</w>
search ing</w>
远 地区</w>
差 旅</w>
土耳 其
ve to</w>
li eu
harv est</w>
impres sive</w>
el f</w>
规 范
英 国人</w>
a g</w>
老挝人民 民主共和国</w>
各项 措施</w>
le ments</w>
contin gents</w>
brig ade</w>
per cep
监督 机构</w>
残 酷</w>
侦察 机</w>
二 苯
y am
techn ic
運動 員</w>
lo ves</w>
a x</w>
这 张</w>
国 有
re aches</w>
tran s</w>
o g</w>
ar do</w>
fail ures</w>
莱 索托</w>
国家 主权</w>
穿 越</w>
相 机</w>
发 票</w>
al ised</w>
plan ted</w>
l or</w>
accumul ated</w>
上 校</w>
econom ist</w>
无 限</w>
攻 擊</w>
S ha
be st
. com</w>
parame ter</w>
clean er</w>
地 方
th ai</w>
poe try</w>
荷 兰
no bel</w>
s ali
十 五</w>
希 族</w>
总 统
调 用</w>
計 畫</w>
西 撒</w>
we i</w>
出 庭</w>
仲裁 庭</w>
el even</w>
de z</w>
税 率</w>
严重 性</w>
c attle</w>
消 极
充 满
停 火
electron ics</w>
develop s</w>
载 入</w>
p l</w>
R u
17 th</w>
par amount</w>
青 年
ell er</w>
通 讯
j ing</w>
co inci
援 国</w>
舆 论</w>
函 件</w>
pro claimed</w>
e ter</w>
日 志</w>
天文 台</w>
击 者</w>
import antly</w>
enrol led</w>
dv d</w>
心 脏
tr acted</w>
l t
累 计</w>
州 长</w>
mil e</w>
cy lin
概 括</w>
gh o
特 派</w>
奴隶 制</w>
15 00</w>
上 来</w>
pl ain
fi er</w>
注 册
奉 行</w>
telecommun ication</w>
ki v
访 者</w>
盈 利</w>
ob struc
n el
29 2</w>
市 政府</w>
导 向</w>
场 景</w>
受 援国</w>
wor sen
廉 价</w>
peace keepers</w>
fin ger</w>
audi ting</w>
海 水</w>
ari al</w>
priv atization</w>
equ atorial</w>
ag a</w>
ac c</w>
敌 方</w>
创 新
modi fications</w>
附 注</w>
sil k</w>
plo t</w>
optim ization</w>
地下 水</w>
电 站</w>
反 叛</w>
un is
m 2</w>
19 21</w>
诞 生</w>
vacc ine</w>
移 动
p ec
fair ness</w>
一次 性</w>
lo ving</w>
所 得
th al</w>
stam ps</w>
narr ative</w>
cla uses</w>
al arm</w>
gre y</w>
micro finance</w>
tr uc
喀 里
par ity</w>
绝 望</w>
喀里 多尼亚</w>
parlia ments</w>
19 14</w>
d av
理 查
inter pol</w>
ch est</w>
ar k</w>
scul p
特别 强调</w>
征 服</w>
communic able</w>
怎么 办</w>
乘 坐</w>
di str
c .6</w>
th ick
bom bs</w>
联络 小组</w>
saf er</w>
o ic</w>
multi pl
kh an</w>
battali on</w>
开 展
名 誉</w>
ac quiring</w>
S al
seven ty</w>
lo ads</w>
assem bl
any way</w>
保 育</w>
c b
compens ate</w>
communiqu é</w>
振 动</w>
交通 运输</w>
估 价</w>
stat eless</w>
susp end</w>
collabor ate</w>
o b</w>
champion ships</w>
alban ian</w>
行 列</w>
华 尔
健康 权</w>
us s</w>
ess ors</w>
机 会
六 种</w>
范 例</w>
mo tivation</w>
con form</w>
搬 迁</w>
su mes</w>
codi fication</w>
ro ws</w>
fe ver</w>
bacter ia</w>
独 自</w>
sur render</w>
撤 消</w>
gl ish</w>
dou bled</w>
县 级</w>
十 一</w>
C. 6</w>
非 盟</w>
录 像</w>
ber n
贫民 窟</w>
典 礼</w>
ign or
资源 分配</w>
ex porting</w>
concentr ations</w>
表 决权</w>
基 伍</w>
seiz ure</w>
labor atories</w>
生育 率</w>
列 明</w>
海 峡</w>
nigh t
restaur ants</w>
reduc es</w>
popul ated</w>
夜 晚</w>
多 万</w>
jo sé</w>
affili ated</w>
單 位</w>
expec tancy</w>
bu yers</w>
es el</w>
clin ic</w>
履行 职责</w>
s b</w>
起 飞</w>
十 个</w>
例 句</w>
the ft</w>
la di
govern ors</w>
二苯 醚</w>
oc ation</w>
indic t
9 9
至 迟</w>
总的 来说</w>
零 件</w>
重 计</w>
stimul us</w>
re ar</w>
cri pt</w>
15 14</w>
x y</w>
e ye
confron tation</w>
传 染</w>
photograph s</w>
电 流</w>
adequ acy</w>
access ed</w>
measu rements</w>
洛杉 矶</w>
aud ited</w>
麦 克</w>
阻 挠</w>
restrain t</w>
随 函</w>
develop ers</w>
硬 币</w>
失 效</w>
gra y</w>
採 用</w>
de vote</w>
30 4</w>
近 几
南 美洲</w>
dili gence</w>
hor ses</w>
fab ric</w>
as on</w>
科 學</w>
码 头</w>
改 良</w>
scen arios</w>
提高 效率</w>
ra inf
bet es</w>
波 黑</w>
19 34</w>
节 余</w>
7 .2</w>
战 术</w>
基督 徒</w>
佛 得
inter viewed</w>
influ ential</w>
希 腊
目 光</w>
re unification</w>
loc ate</w>
太 陽</w>
商业 银行</w>
apo lo
我 愿</w>
干 燥</w>
对 称</w>
go vern</w>
aren a</w>
渐 渐</w>
信 徒</w>
predic ted</w>
敌 对</w>
交流 信息</w>
d g
stream lining</w>
refer ral</w>
随 机</w>
过渡 政府</w>
ord n
现 金
sk y
res titu
此 一</w>
一 杯</w>
耳 朵</w>
fi ting</w>
contam ination</w>
玉 米</w>
dia betes</w>
应 计</w>
周 一</w>
个 性</w>
termin ated</w>
bag s</w>
索 引</w>
跟 着</w>
条 中</w>
pres ently</w>
机 理</w>
愚 蠢</w>
d l
b au
persecu tion</w>
k iss</w>
constitu ent</w>
instru mental</w>
benefici ary</w>
su its</w>
ber ry</w>
严重 威胁</w>
ortho do
in tr
consul ar</w>
condem ns</w>
前 体</w>
深 远</w>
以 求</w>
an o
该 案</w>
lau gh</w>
高 地</w>
dec om
da wn</w>
资 发</w>
建 立
无 家
塞浦路 斯
e ffic
以 致</w>
缺 口</w>
极其 重要</w>
wa ste
unc df</w>
jud gements</w>
市 場</w>
ligh ting</w>
commem or
bur st</w>
約 翰</w>
使 团</w>
re vers
fin alize</w>
do zen</w>
ar is
5 6
致 函</w>
分 工</w>
neg atively</w>
ken ne
一 遍</w>
转 达</w>
总 收入</w>
vel ocity</w>
appro ves</w>
街 上</w>
继续 执行</w>
h ed</w>
absor bed</w>
ven tures</w>
unci ation</w>
eful ness</w>
bu c
applic ability</w>
矩 阵</w>
参 阅</w>
pro vo
mar s</w>
无家 可
30 1</w>
巨 大
噪 音</w>
博 客</w>
th ur</w>
gra ms</w>
inter ro
qu alities</w>
minur so</w>
组 成员</w>
小 時</w>
微 生物</w>
hy dra
主管 机关</w>
remit tances</w>
eco soc</w>
1, 500</w>
u el</w>
始 于</w>
ren amed</w>
health care</w>
词 语</w>
conver gence</w>
国 情</w>
it c</w>
i e
十 七届</w>
em powered</w>
重 债</w>
参与 性</w>
mo hamed</w>
lic ences</w>
表示 满意</w>
检 讨</w>
gen es</w>
br a</w>
这 名</w>
中 为</w>
floo ding</w>
ur ity</w>
i vor
absor ption</w>
F A
wor e</w>
ver de</w>
vacu um</w>
termin ology</w>
牲 畜</w>
pap er
2 67</w>
扣 除</w>
托 马斯</w>
更 高</w>
经营 者</w>
28 6</w>
utili zing</w>
ru pt
mus cle</w>
influ ences</w>
立 学校</w>
信 仰
之 地</w>
reve als</w>
设计 师</w>
再 生</w>
ash i</w>
au ction</w>
划 定</w>
义务 教育</w>
放 到</w>
vec tor</w>
bid ding</w>
玩 笑</w>
stri king</w>
bo om</w>
联 阿</w>
t land</w>
营 造</w>
持 續</w>
in appropriate</w>
euro s</w>
sol em
悲 伤</w>
克林 顿</w>
北 美洲</w>
wo od
dan cing</w>
colon i
处 分</w>
vo id</w>
sc ales</w>
首 歌</w>
等 国</w>
检 索</w>
创 收</w>
本 项</w>
实 习</w>
i on
conc iliation</w>
已 婚</w>
缺 席</w>
PR ST</w>
途 中</w>
生 病</w>
拒 绝
随 之</w>
appe aring</w>
19 28</w>
数 百万</w>
oth o</w>
胀 率</w>
performan ces</w>
et al</w>
克 兰
r ats</w>
表示 遗憾</w>
t ness</w>
适 应
美洲 国家
美洲国家 组织</w>
筛 选</w>
反应 堆</w>
k ol
武装 力量</w>
掩 盖</w>
务 实</w>
co ol
3. 7</w>
可 信
减 至</w>
一 阵</w>
to s</w>
前 来</w>
destruc tive</w>
氯 化
p acking</w>
hot els</w>
Su b
管理 者</w>
en za</w>
履 约</w>
ivor ian</w>
轻 易</w>
禁 试</w>
技术 咨询</w>
ke en</w>
mo squ
来 讲</w>
案 文
br illi
remem bered</w>
rainf all</w>
prof iles</w>
act ress</w>
這 樣</w>
外 国
先 例</w>
cra zy</w>
法 学</w>
-------- --------
普 林
st aying</w>
se is
mu d</w>
格 拉</w>
im is</w>
现 出</w>
volati lity</w>
ser b</w>
ak h</w>
4. 7</w>
時 代</w>
假 日</w>
o sa
简 易</w>
布 什
vend or</w>
invi ting</w>
di ments</w>
d ent
50 s</w>
虚 假</w>
新 政府</w>
sh er
监 测
nerv ous</w>
4 25</w>
赫 尔
de portation</w>
就 算</w>
被告 人</w>
紧急 状态</w>
审 慎</w>
recru it</w>
新 喀里多尼亚</w>
loo se</w>
gir l
领 先</w>
facilit ates</w>
rep airs</w>
结 算</w>
mor ph
Ori gin
占 用</w>
em i
agend as</w>
足 球
保 管</w>
五 月</w>
au t</w>
12 ,
在 一起</w>
保 守
li p</w>
j on
遗 传
sho w
regret ted</w>
g c.
有所 不同</w>
contain ers</w>
chi p</w>
高 等</w>
議 員</w>
xi v</w>
prob ability</w>
bal i</w>
骄 傲</w>
bureau cr
En glish</w>
主 義</w>
appreci ates</w>
tot alling</w>
pol ar</w>
WP .
to il
集装 箱</w>
流 产</w>
侵 蚀</w>
bench mark</w>
厘 米</w>
sh rin
机 密</w>
discre pan
bre aches</w>
bank rupt
embed ded</w>
ag er</w>
获 释</w>
industri alization</w>
特 勒</w>
禁 毒
审计 报告</w>
resi stant</w>
finan cially</w>
19 31</w>
公 开
le on
此 基础</w>
村 民</w>
回 事</w>
博 物</w>
党 人</w>
不 定</w>
und af</w>
上 半年</w>
syn thetic</w>
el iness</w>
演 員</w>
土 族</w>
联 索</w>
斯 州</w>
股 权</w>
抛 弃</w>
不 时</w>
8 8
直 接
parti te</w>
m é
模 仿</w>
会 面</w>
open ness</w>
at t</w>
sel ecting</w>
guar di
臭 氧
se ize</w>
摩 罗</w>
r ated</w>
sug g
restitu tion</w>
favor able</w>
Origin al</w>
少 于</w>
educ ate</w>
横 向</w>
mer ger</w>
碰 到</w>
世界 杯</w>
大 街</w>
公 平
po or
I S</w>
f .
读 书</w>
提 问</w>
18 74</w>
cr is
血 压</w>
第六 十</w>
垂 直</w>
thir dly</w>
mat ching</w>
汇 集</w>
动 脉</w>
付 给</w>
是 非</w>
地 球
事 例</w>
薪 水</w>
吃 惊</w>
误 差</w>
d ney</w>
容 许</w>
只 好</w>
sexu ality</w>
hun gry</w>
激 素</w>
最 快</w>
se in</w>
跳 舞</w>
多 达</w>
基 因
經 過</w>
exemp tions</w>
S e
专 利
restor ing</w>
it ude</w>
28 7</w>
激 动</w>
協 會</w>
动 物
pu rely</w>
2. 0</w>
dr al</w>
in fer
破 裂</w>
victor ia</w>
pre cip
coer cive</w>
应 收</w>
尼 克</w>
lux ury</w>
lieu tenant</w>
commen sur
am id</w>
軍 隊</w>
bom bing</w>
expec tation</w>
ad el
人 員</w>
v ag
distribu te</w>
优先 权</w>
ro oted</w>
hu b</w>
专业 知识</w>
execu ting</w>
do w</w>
bre eding</w>
access ing</w>
发表 声明</w>
t r</w>
政 局</w>
pro tot
第 一项</w>
pain ful</w>
l en</w>
cl oth</w>
登 上</w>
热 带
每 届</w>
大 城市</w>
生产 商</w>
租 用</w>
f ric
war ding</w>
enjo ys</w>
M c
entit lements</w>
下 落</w>
po pe</w>
坐 标</w>
ap er</w>
7 5%</w>
po s</w>
P er
harv ard</w>
A h
en counter</w>
dec reas
防 空</w>
摩纳 哥</w>
竞争 法</w>
accompan ying</w>
海 滩</w>
动 词</w>
l ecture</w>
開 發</w>
with drew</w>
热 线</w>
奖 金</w>
k ins</w>
d t</w>
croati an</w>
起 点</w>
帝 國</w>
scen es</w>
deple ting</w>
昨 晚</w>
北 非</w>
说 出</w>
vin cent</w>
公 营</w>
l acks</w>
air line</w>
16 th</w>
诚 意</w>
umb rella</w>
sour cing</w>
开 来</w>
两 大</w>
高 昂</w>
pr st</w>
弗 兰
半 球</w>
r ing
les otho</w>
di oc
sacrific e</w>
celebr ated</w>
贵 族</w>
一 切
ordn ance</w>
umo ja</w>
sen sor</w>
l oud</w>
fore most</w>
附 加
attr acting</w>
斯 塔</w>
embr ac
消费 量</w>
新 生</w>
fin gers</w>
al t</w>
adop ts</w>
鲁 特</w>
海 运</w>
储 备金</w>
sh ei
hi ring</w>
臭氧 层</w>
kow loon</w>
双 手</w>
kno c
碰 撞</w>
极 度</w>
purch ases</w>
direc tives</w>
arri ving</w>
科 摩罗</w>
格 林</w>
度 假</w>
not e
28 1</w>
阿 爾
贿 赂</w>
该 股</w>
携 手</w>
reservo ir</w>
mar shall</w>
m ill</w>
19 12</w>
軌 道</w>
會 議</w>
ge ome
余 地</w>
comple mented</w>
玫 瑰</w>
几 周</w>
琼 斯</w>
差 额</w>
ur ging</w>
一 共</w>
di al
decreas ing</w>
事务 所</w>
审 前</w>
亚 洲
浪 漫</w>
做 些</w>
el o
陪 伴</w>
开 枪</w>
圆 满
公共 汽车</w>
r ations</w>
bab ies</w>
不 合理</w>
substanti ated</w>
reiter ating</w>
nit ro
ethn icity</w>
comman ders</w>
上 映</w>
禁毒 署</w>
不 准</w>
zz y</w>
P R</w>
就此 结束</w>
weal thy</w>
scienti st</w>
格 尔</w>
l em
届 时</w>
margin alization</w>
3 67</w>
負 責</w>
surr ounded</w>
o c</w>
hung arian</w>
1. 9</w>
来 临</w>
結 構</w>
喜 歡</w>
十 年代</w>
列 报</w>
prev ail</w>
em atic</w>
财 产
节 能</w>
propos ing</w>
do z
我 来</w>
德 语</w>
se wage</w>
gro ws</w>
cumul ative</w>
译 员</w>
con fin
或 非</w>
endor se</w>
法 定
奥林匹克 运动会</w>
stabil ize</w>
應 用</w>
地 为</w>
tic a</w>
预 警
辖 市</w>
connec tivity</w>
.. ..
spac ecraft</w>
gu ez</w>
design er</w>
M L</w>
产 地</w>
x iii</w>
direc tory</w>
armen ian</w>
构成 威胁</w>
原 谅</w>
佛得 角</w>
tra ders</w>
or derly</w>
b ye</w>
越 境</w>
船 长</w>
伦 理</w>
w u
predic t</w>
bar rel</w>
2 68</w>
煤 炭</w>
树 林</w>
东 北</w>
link age</w>
for ci
dis position</w>
议会 选举</w>
b as</w>
3 40</w>
电视 节目</w>
发生 变化</w>
ma sters</w>
ev o</w>
15 th</w>
法 兰
resi ding</w>
facilit ator</w>
[...]
